{
  "version": "1.0",
  "truncation": null,
  "padding": null,
  "added_tokens": [
    {
      "id": 0,
      "content": "[PAD]",
      "single_word": false,
      "lstrip": false,
      "rstrip": false,
      "normalized": false,
      "special": true
    },
    {
      "id": 1,
      "content": "[UNK]",
      "single_word": false,
      "lstrip": false,
      "rstrip": false,
      "normalized": false,
      "special": true
    },
    {
      "id": 2,
      "content": "[BOS]",
      "single_word": false,
      "lstrip": false,
      "rstrip": false,
      "normalized": false,
      "special": true
    },
    {
      "id": 3,
      "content": "[EOS]",
      "single_word": false,
      "lstrip": false,
      "rstrip": false,
      "normalized": false,
      "special": true
    }
  ],
  "normalizer": null,
  "pre_tokenizer": {
    "type": "Whitespace"
  },
  "post_processor": null,
  "decoder": null,
  "model": {
    "type": "BPE",
    "dropout": null,
    "unk_token": "[UNK]",
    "continuing_subword_prefix": null,
    "end_of_word_suffix": null,
    "fuse_unk": false,
    "byte_fallback": false,
    "ignore_merges": false,
    "vocab": {
      "[PAD]": 0,
      "[UNK]": 1,
      "[BOS]": 2,
      "[EOS]": 3,
      "!": 4,
      "\"": 5,
      "%": 6,
      "'": 7,
      "(": 8,
      ")": 9,
      "+": 10,
      ",": 11,
      "-": 12,
      ".": 13,
      "/": 14,
      "0": 15,
      "1": 16,
      "2": 17,
      "3": 18,
      "4": 19,
      "5": 20,
      "6": 21,
      "7": 22,
      "8": 23,
      "9": 24,
      ":": 25,
      ";": 26,
      "?": 27,
      "A": 28,
      "B": 29,
      "C": 30,
      "D": 31,
      "E": 32,
      "F": 33,
      "G": 34,
      "H": 35,
      "I": 36,
      "J": 37,
      "K": 38,
      "L": 39,
      "M": 40,
      "N": 41,
      "O": 42,
      "P": 43,
      "Q": 44,
      "R": 45,
      "S": 46,
      "T": 47,
      "U": 48,
      "V": 49,
      "W": 50,
      "X": 51,
      "Y": 52,
      "Z": 53,
      "[": 54,
      "]": 55,
      "a": 56,
      "b": 57,
      "c": 58,
      "d": 59,
      "e": 60,
      "f": 61,
      "g": 62,
      "h": 63,
      "i": 64,
      "j": 65,
      "k": 66,
      "l": 67,
      "m": 68,
      "n": 69,
      "o": 70,
      "p": 71,
      "q": 72,
      "r": 73,
      "s": 74,
      "t": 75,
      "u": 76,
      "v": 77,
      "w": 78,
      "x": 79,
      "y": 80,
      "z": 81,
      "£": 82,
      "«": 83,
      "­": 84,
      "º": 85,
      "»": 86,
      "¾": 87,
      "À": 88,
      "Â": 89,
      "É": 90,
      "Ê": 91,
      "Ö": 92,
      "Ü": 93,
      "à": 94,
      "á": 95,
      "â": 96,
      "ä": 97,
      "ç": 98,
      "è": 99,
      "é": 100,
      "ê": 101,
      "ë": 102,
      "í": 103,
      "î": 104,
      "ï": 105,
      "ñ": 106,
      "ò": 107,
      "ó": 108,
      "ô": 109,
      "ö": 110,
      "ø": 111,
      "ù": 112,
      "ú": 113,
      "û": 114,
      "ü": 115,
      "on": 116,
      "es": 117,
      "en": 118,
      "th": 119,
      "in": 120,
      "re": 121,
      "ti": 122,
      "an": 123,
      "is": 124,
      "er": 125,
      "ou": 126,
      "de": 127,
      "ent": 128,
      "le": 129,
      "the": 130,
      "or": 131,
      "qu": 132,
      "it": 133,
      "la": 134,
      "tion": 135,
      "ro": 136,
      "ar": 137,
      "al": 138,
      "at": 139,
      "om": 140,
      "si": 141,
      "et": 142,
      "ment": 143,
      "to": 144,
      "ce": 145,
      "as": 146,
      "of": 147,
      "ne": 148,
      "ur": 149,
      "ve": 150,
      "te": 151,
      "ra": 152,
      "and": 153,
      "con": 154,
      "li": 155,
      "au": 156,
      "se": 157,
      "que": 158,
      "il": 159,
      "les": 160,
      "ch": 161,
      "pro": 162,
      "pe": 163,
      "me": 164,
      "ing": 165,
      "st": 166,
      "our": 167,
      "po": 168,
      "res": 169,
      "ré": 170,
      "un": 171,
      "omm": 172,
      "ation": 173,
      "des": 174,
      "ci": 175,
      "ous": 176,
      "ri": 177,
      "for": 178,
      "be": 179,
      "par": 180,
      "di": 181,
      "sion": 182,
      "no": 183,
      "du": 184,
      "su": 185,
      "ai": 186,
      "ac": 187,
      "ant": 188,
      "that": 189,
      "ly": 190,
      "dé": 191,
      "ans": 192,
      "est": 193,
      "wh": 194,
      "uro": 195,
      "ons": 196,
      "por": 197,
      "ter": 198,
      "we": 199,
      "Comm": 200,
      "ab": 201,
      "so": 202,
      "ma": 203,
      "ed": 204,
      "ir": 205,
      "lu": 206,
      "ission": 207,
      "lo": 208,
      "com": 209,
      "ver": 210,
      "port": 211,
      "ex": 212,
      "une": 213,
      "ad": 214,
      "ces": 215,
      "mo": 216,
      "qui": 217,
      "Commission": 218,
      "ave": 219,
      "tre": 220,
      "ag": 221,
      "ion": 222,
      "pour": 223,
      "he": 224,
      "am": 225,
      "are": 226,
      "ap": 227,
      "vo": 228,
      "this": 229,
      "cu": 230,
      "nous": 231,
      "ité": 232,
      "lement": 233,
      "fi": 234,
      "tu": 235,
      "ont": 236,
      "ld": 237,
      "im": 238,
      "Euro": 239,
      "co": 240,
      "tr": 241,
      "pé": 242,
      "end": 243,
      "Europe": 244,
      "dans": 245,
      "je": 246,
      "ta": 247,
      "vi": 248,
      "té": 249,
      "pas": 250,
      "tions": 251,
      "not": 252,
      "out": 253,
      "ith": 254,
      "whi": 255,
      "el": 256,
      "ould": 257,
      "ate": 258,
      "pr": 259,
      "which": 260,
      "sur": 261,
      "ct": 262,
      "ut": 263,
      "do": 264,
      "ay": 265,
      "per": 266,
      "mb": 267,
      "with": 268,
      "dent": 269,
      "tive": 270,
      "comm": 271,
      "ques": 272,
      "gi": 273,
      "av": 274,
      "ill": 275,
      "have": 276,
      "cer": 277,
      "der": 278,
      "us": 279,
      "ence": 280,
      "ge": 281,
      "pré": 282,
      "poli": 283,
      "ity": 284,
      "Par": 285,
      "mes": 286,
      "ser": 287,
      "ff": 288,
      "dis": 289,
      "ait": 290,
      "tra": 291,
      "ke": 292,
      "aux": 293,
      "The": 294,
      "Un": 295,
      "int": 296,
      "sh": 297,
      "op": 298,
      "fin": 299,
      "aire": 300,
      "mp": 301,
      "ère": 302,
      "euro": 303,
      "will": 304,
      "gh": 305,
      "pos": 306,
      "pu": 307,
      "all": 308,
      "aut": 309,
      "gra": 310,
      "ance": 311,
      "oun": 312,
      "str": 313,
      "péen": 314,
      "gu": 315,
      "plu": 316,
      "ust": 317,
      "man": 318,
      "européen": 319,
      "né": 320,
      "European": 321,
      "gr": 322,
      "ob": 323,
      "ments": 324,
      "Union": 325,
      "ins": 326,
      "tat": 327,
      "ers": 328,
      "has": 329,
      "by": 330,
      "able": 331,
      "ble": 332,
      "parti": 333,
      "fo": 334,
      "rap": 335,
      "ven": 336,
      "cet": 337,
      "ain": 338,
      "plus": 339,
      "ux": 340,
      "Mr": 341,
      "eur": 342,
      "politi": 343,
      "cial": 344,
      "min": 345,
      "ens": 346,
      "inter": 347,
      "99": 348,
      "ction": 349,
      "00": 350,
      "ni": 351,
      "ten": 352,
      "ul": 353,
      "ts": 354,
      "mon": 355,
      "go": 356,
      "ations": 357,
      "cy": 358,
      "ard": 359,
      "cal": 360,
      "iti": 361,
      "ise": 362,
      "sa": 363,
      "gram": 364,
      "posi": 365,
      "lar": 366,
      "program": 367,
      "mar": 368,
      "ture": 369,
      "ament": 370,
      "ther": 371,
      "import": 372,
      "Je": 373,
      "lle": 374,
      "pre": 375,
      "ted": 376,
      "would": 377,
      "cette": 378,
      "Th": 379,
      "resi": 380,
      "ves": 381,
      "there": 382,
      "lé": 383,
      "ord": 384,
      "dire": 385,
      "form": 386,
      "ll": 387,
      "urs": 388,
      "comp": 389,
      "onsi": 390,
      "In": 391,
      "Presi": 392,
      "cur": 393,
      "ite": 394,
      "cont": 395,
      "lic": 396,
      "tout": 397,
      "ale": 398,
      "pres": 399,
      "ès": 400,
      "its": 401,
      "ist": 402,
      "but": 403,
      "sident": 404,
      "concer": 405,
      "sou": 406,
      "We": 407,
      "sé": 408,
      "pri": 409,
      "should": 410,
      "mi": 411,
      "can": 412,
      "conom": 413,
      "one": 414,
      "ure": 415,
      "also": 416,
      "must": 417,
      "mais": 418,
      "reg": 419,
      "être": 420,
      "titu": 421,
      "velo": 422,
      "sent": 423,
      "President": 424,
      "cess": 425,
      "vous": 426,
      "liament": 427,
      "wor": 428,
      "ctive": 429,
      "cti": 430,
      "emp": 431,
      "bi": 432,
      "stru": 433,
      "nation": 434,
      "sont": 435,
      "ais": 436,
      "point": 437,
      "Il": 438,
      "velop": 439,
      "voir": 440,
      "trans": 441,
      "elle": 442,
      "cis": 443,
      "Con": 444,
      "age": 445,
      "you": 446,
      "dev": 447,
      "ors": 448,
      "Parliament": 449,
      "ese": 450,
      "entre": 451,
      "Nous": 452,
      "fait": 453,
      "Parlement": 454,
      "mber": 455,
      "européenne": 456,
      "Pré": 457,
      "conomi": 458,
      "bu": 459,
      "Le": 460,
      "son": 461,
      "Président": 462,
      "ég": 463,
      "car": 464,
      "État": 465,
      "ée": 466,
      "fic": 467,
      "cla": 468,
      "avec": 469,
      "ire": 470,
      "199": 471,
      "acc": 472,
      "vent": 473,
      "ures": 474,
      "vis": 475,
      "Monsi": 476,
      "été": 477,
      "Monsieur": 478,
      "dra": 479,
      "It": 480,
      "been": 481,
      "clu": 482,
      "és": 483,
      "rom": 484,
      "very": 485,
      "fe": 486,
      "commun": 487,
      "cle": 488,
      "ho": 489,
      "fon": 490,
      "app": 491,
      "part": 492,
      "enti": 493,
      "jour": 494,
      "cul": 495,
      "ue": 496,
      "important": 497,
      "from": 498,
      "don": 499,
      "ouve": 500,
      "question": 501,
      "ér": 502,
      "ses": 503,
      "certa": 504,
      "cau": 505,
      "politique": 506,
      "act": 507,
      "ays": 508,
      "che": 509,
      "resp": 510,
      "cip": 511,
      "more": 512,
      "oup": 513,
      "particu": 514,
      "ner": 515,
      "programme": 516,
      "Me": 517,
      "jet": 518,
      "like": 519,
      "nes": 520,
      "ine": 521,
      "cep": 522,
      "position": 523,
      "lis": 524,
      "ds": 525,
      "ght": 526,
      "met": 527,
      "présent": 528,
      "lation": 529,
      "nement": 530,
      "cour": 531,
      "cons": 532,
      "ally": 533,
      "ef": 534,
      "pla": 535,
      "va": 536,
      "possi": 537,
      "fore": 538,
      "rapport": 539,
      "now": 540,
      "ssi": 541,
      "initi": 542,
      "ême": 543,
      "This": 544,
      "eff": 545,
      "prin": 546,
      "ms": 547,
      "up": 548,
      "sy": 549,
      "king": 550,
      "La": 551,
      "reat": 552,
      "spe": 553,
      "sed": 554,
      "mer": 555,
      "ème": 556,
      "alement": 557,
      "ome": 558,
      "quel": 559,
      "aires": 560,
      "was": 561,
      "men": 562,
      "cent": 563,
      "ural": 564,
      "comme": 565,
      "gions": 566,
      "who": 567,
      "national": 568,
      "ouver": 569,
      "cr": 570,
      "tri": 571,
      "these": 572,
      "hi": 573,
      "cri": 574,
      "report": 575,
      "ative": 576,
      "fer": 577,
      "vou": 578,
      "lan": 579,
      "gis": 580,
      "ong": 581,
      "jus": 582,
      "propos": 583,
      "consi": 584,
      "Mad": 585,
      "finan": 586,
      "ary": 587,
      "if": 588,
      "ées": 589,
      "iss": 590,
      "bil": 591,
      "need": 592,
      "sup": 593,
      "memb": 594,
      "od": 595,
      "tou": 596,
      "ités": 597,
      "bien": 598,
      "rer": 599,
      "ense": 600,
      "Ce": 601,
      "ati": 602,
      "alis": 603,
      "ren": 604,
      "ie": 605,
      "aussi": 606,
      "cas": 607,
      "obje": 608,
      "chan": 609,
      "other": 610,
      "ree": 611,
      "their": 612,
      "teur": 613,
      "ach": 614,
      "vir": 615,
      "États": 616,
      "Member": 617,
      "inté": 618,
      "abil": 619,
      "pub": 620,
      "ét": 621,
      "même": 622,
      "faire": 623,
      "appro": 624,
      "cre": 625,
      "time": 626,
      "emplo": 627,
      "également": 628,
      "En": 629,
      "coun": 630,
      "ration": 631,
      "nouve": 632,
      "avons": 633,
      "ear": 634,
      "ises": 635,
      "lie": 636,
      "what": 637,
      "ace": 638,
      "some": 639,
      "bre": 640,
      "work": 641,
      "sub": 642,
      "my": 643,
      "hu": 644,
      "cil": 645,
      "tro": 646,
      "aid": 647,
      "lution": 648,
      "rati": 649,
      "seil": 650,
      "pect": 651,
      "under": 652,
      "sel": 653,
      "viron": 654,
      "ded": 655,
      "imp": 656,
      "issu": 657,
      "200": 658,
      "pays": 659,
      "sit": 660,
      "non": 661,
      "soci": 662,
      "Coun": 663,
      "bat": 664,
      "social": 665,
      "nu": 666,
      "Council": 667,
      "cause": 668,
      "use": 669,
      "new": 670,
      "environ": 671,
      "ient": 672,
      "nom": 673,
      "institu": 674,
      "they": 675,
      "ille": 676,
      "ting": 677,
      "Conseil": 678,
      "économi": 679,
      "bet": 680,
      "tates": 681,
      "States": 682,
      "ines": 683,
      "any": 684,
      "doit": 685,
      "peut": 686,
      "wn": 687,
      "aff": 688,
      "uation": 689,
      "order": 690,
      "ough": 691,
      "ame": 692,
      "fir": 693,
      "than": 694,
      "dro": 695,
      "mati": 696,
      "concerne": 697,
      "peti": 698,
      "whe": 699,
      "tes": 700,
      "endre": 701,
      "auc": 702,
      "ress": 703,
      "rég": 704,
      "ants": 705,
      "ig": 706,
      "objecti": 707,
      "notre": 708,
      "red": 709,
      "curr": 710,
      "ide": 711,
      "vern": 712,
      "concern": 713,
      "ste": 714,
      "trava": 715,
      "fr": 716,
      "action": 717,
      "possible": 718,
      "ffi": 719,
      "ful": 720,
      "ose": 721,
      "très": 722,
      "ito": 723,
      "about": 724,
      "only": 725,
      "princip": 726,
      "ali": 727,
      "prob": 728,
      "membres": 729,
      "mat": 730,
      "thing": 731,
      "policy": 732,
      "ges": 733,
      "bas": 734,
      "unity": 735,
      "fu": 736,
      "develop": 737,
      "leur": 738,
      "exam": 739,
      "ck": 740,
      "ante": 741,
      "present": 742,
      "pend": 743,
      "lig": 744,
      "dévelop": 745,
      "cé": 746,
      "1999": 747,
      "day": 748,
      "mis": 749,
      "initiative": 750,
      "vie": 751,
      "effe": 752,
      "adop": 753,
      "ess": 754,
      "gouver": 755,
      "diff": 756,
      "fact": 757,
      "mark": 758,
      "vre": 759,
      "take": 760,
      "ty": 761,
      "iter": 762,
      "ated": 763,
      "voudra": 764,
      "bo": 765,
      "way": 766,
      "ved": 767,
      "tant": 768,
      "programmes": 769,
      "id": 770,
      "dem": 771,
      "come": 772,
      "make": 773,
      "therefore": 774,
      "ions": 775,
      "tous": 776,
      "directive": 777,
      "produ": 778,
      "accep": 779,
      "govern": 780,
      "into": 781,
      "rais": 782,
      "because": 783,
      "ject": 784,
      "ople": 785,
      "justi": 786,
      "again": 787,
      "pou": 788,
      "particular": 789,
      "ish": 790,
      "autres": 791,
      "lors": 792,
      "rela": 793,
      "see": 794,
      "clear": 795,
      "voudrais": 796,
      "cision": 797,
      "ency": 798,
      "cela": 799,
      "year": 800,
      "situation": 801,
      "long": 802,
      "moc": 803,
      "anti": 804,
      "contr": 805,
      "Les": 806,
      "core": 807,
      "donc": 808,
      "fois": 809,
      "low": 810,
      "puis": 811,
      "just": 812,
      "ls": 813,
      "over": 814,
      "itte": 815,
      "servi": 816,
      "deux": 817,
      "say": 818,
      "coo": 819,
      "support": 820,
      "get": 821,
      "ic": 822,
      "ler": 823,
      "ple": 824,
      "nos": 825,
      "cus": 826,
      "probl": 827,
      "cré": 828,
      "faut": 829,
      "gan": 830,
      "public": 831,
      "accord": 832,
      "dont": 833,
      "eng": 834,
      "val": 835,
      "main": 836,
      "place": 837,
      "cro": 838,
      "gé": 839,
      "lles": 840,
      "ink": 841,
      "sig": 842,
      "march": 843,
      "proposal": 844,
      "ères": 845,
      "sure": 846,
      "ding": 847,
      "culture": 848,
      "people": 849,
      "fun": 850,
      "oi": 851,
      "devons": 852,
      "ju": 853,
      "when": 854,
      "wever": 855,
      "contri": 856,
      "Madame": 857,
      "Pro": 858,
      "vé": 859,
      "institutions": 860,
      "dom": 861,
      "yens": 862,
      "ôle": 863,
      "amen": 864,
      "oc": 865,
      "read": 866,
      "2000": 867,
      "contin": 868,
      "ittee": 869,
      "ences": 870,
      "group": 871,
      "inten": 872,
      "contre": 873,
      "Commissioner": 874,
      "objectif": 875,
      "développe": 876,
      "As": 877,
      "person": 878,
      "regard": 879,
      "made": 880,
      "llè": 881,
      "respons": 882,
      "EU": 883,
      "mé": 884,
      "ween": 885,
      "ional": 886,
      "particuli": 887,
      "sti": 888,
      "ask": 889,
      "issaire": 890,
      "temp": 891,
      "collè": 892,
      "tax": 893,
      "ener": 894,
      "régions": 895,
      "prises": 896,
      "large": 897,
      "cito": 898,
      "soit": 899,
      "ities": 900,
      "bate": 901,
      "between": 902,
      "collègu": 903,
      "eux": 904,
      "Inter": 905,
      "your": 906,
      "alité": 907,
      "char": 908,
      "state": 909,
      "elles": 910,
      "gouvernement": 911,
      "développement": 912,
      "cap": 913,
      "ils": 914,
      "Community": 915,
      "contribu": 916,
      "economi": 917,
      "such": 918,
      "them": 919,
      "rait": 920,
      "forme": 921,
      "political": 922,
      "cou": 923,
      "inform": 924,
      "actu": 925,
      "competi": 926,
      "matière": 927,
      "projet": 928,
      "being": 929,
      "curité": 930,
      "mil": 931,
      "mani": 932,
      "struc": 933,
      "débat": 934,
      "dence": 935,
      "ger": 936,
      "inclu": 937,
      "know": 938,
      "encore": 939,
      "within": 940,
      "development": 941,
      "demand": 942,
      "manière": 943,
      "teurs": 944,
      "sus": 945,
      "proble": 946,
      "vol": 947,
      "first": 948,
      "organ": 949,
      "sions": 950,
      "tés": 951,
      "nécess": 952,
      "ources": 953,
      "pose": 954,
      "constitu": 955,
      "dit": 956,
      "rappor": 957,
      "certain": 958,
      "cor": 959,
      "great": 960,
      "where": 961,
      "mu": 962,
      "mble": 963,
      "ris": 964,
      "were": 965,
      "toute": 966,
      "lib": 967,
      "most": 968,
      "areas": 969,
      "avant": 970,
      "consider": 971,
      "nombre": 972,
      "sans": 973,
      "indu": 974,
      "mocrati": 975,
      "bon": 976,
      "uti": 977,
      "debate": 978,
      "sécurité": 979,
      "nal": 980,
      "those": 981,
      "tex": 982,
      "fav": 983,
      "commission": 984,
      "issue": 985,
      "vote": 986,
      "plan": 987,
      "rural": 988,
      "less": 989,
      "tries": 990,
      "No": 991,
      "thor": 992,
      "ommes": 993,
      "agree": 994,
      "importance": 995,
      "countries": 996,
      "amende": 997,
      "minis": 998,
      "positions": 999,
      "jourd": 1000,
      "hui": 1001,
      "ph": 1002,
      "regions": 1003,
      "tis": 1004,
      "aine": 1005,
      "sement": 1006,
      "tent": 1007,
      "mental": 1008,
      "communaut": 1009,
      "applic": 1010,
      "change": 1011,
      "ER": 1012,
      "mit": 1013,
      "diffi": 1014,
      "market": 1015,
      "Wh": 1016,
      "concurr": 1017,
      "uni": 1018,
      "travail": 1019,
      "economic": 1020,
      "conclu": 1021,
      "ious": 1022,
      "discus": 1023,
      "ards": 1024,
      "sein": 1025,
      "prote": 1026,
      "amend": 1027,
      "mettre": 1028,
      "atives": 1029,
      "financi": 1030,
      "milli": 1031,
      "ak": 1032,
      "pense": 1033,
      "rè": 1034,
      "stand": 1035,
      "aient": 1036,
      "transport": 1037,
      "érence": 1038,
      "dam": 1039,
      "gal": 1040,
      "belie": 1041,
      "rapporteur": 1042,
      "fra": 1043,
      "too": 1044,
      "peu": 1045,
      "grou": 1046,
      "jà": 1047,
      "table": 1048,
      "ving": 1049,
      "vue": 1050,
      "vers": 1051,
      "prior": 1052,
      "aur": 1053,
      "respect": 1054,
      "déjà": 1055,
      "ablis": 1056,
      "tru": 1057,
      "premi": 1058,
      "view": 1059,
      "ready": 1060,
      "sul": 1061,
      "groupe": 1062,
      "cad": 1063,
      "um": 1064,
      "atten": 1065,
      "questions": 1066,
      "eurs": 1067,
      "nive": 1068,
      "justice": 1069,
      "citoyens": 1070,
      "gar": 1071,
      "solution": 1072,
      "derni": 1073,
      "many": 1074,
      "responsi": 1075,
      "cours": 1076,
      "bility": 1077,
      "employ": 1078,
      "essenti": 1079,
      "De": 1080,
      "seu": 1081,
      "There": 1082,
      "ties": 1083,
      "led": 1084,
      "concurrence": 1085,
      "tak": 1086,
      "then": 1087,
      "indi": 1088,
      "anné": 1089,
      "abilité": 1090,
      "implement": 1091,
      "dament": 1092,
      "aujourd": 1093,
      "logi": 1094,
      "isation": 1095,
      "ast": 1096,
      "ables": 1097,
      "économique": 1098,
      "ban": 1099,
      "jor": 1100,
      "major": 1101,
      "here": 1102,
      "péri": 1103,
      "mise": 1104,
      "nor": 1105,
      "opin": 1106,
      "autor": 1107,
      "Présidente": 1108,
      "ticle": 1109,
      "proposition": 1110,
      "èrement": 1111,
      "ues": 1112,
      "syste": 1113,
      "Ho": 1114,
      "gent": 1115,
      "ind": 1116,
      "tement": 1117,
      "II": 1118,
      "br": 1119,
      "fé": 1120,
      "far": 1121,
      "think": 1122,
      "sujet": 1123,
      "lui": 1124,
      "fac": 1125,
      "où": 1126,
      "sin": 1127,
      "believe": 1128,
      "ivent": 1129,
      "esp": 1130,
      "ety": 1131,
      "author": 1132,
      "tw": 1133,
      "leve": 1134,
      "rie": 1135,
      "right": 1136,
      "On": 1137,
      "quoi": 1138,
      "simp": 1139,
      "matter": 1140,
      "competition": 1141,
      "dou": 1142,
      "financial": 1143,
      "cadre": 1144,
      "dan": 1145,
      "already": 1146,
      "condi": 1147,
      "nat": 1148,
      "èmes": 1149,
      "conn": 1150,
      "règ": 1151,
      "gy": 1152,
      "effor": 1153,
      "future": 1154,
      "air": 1155,
      "ctions": 1156,
      "tend": 1157,
      "exp": 1158,
      "sera": 1159,
      "niveau": 1160,
      "his": 1161,
      "suis": 1162,
      "crimin": 1163,
      "alisation": 1164,
      "Committee": 1165,
      "does": 1166,
      "collègues": 1167,
      "Mes": 1168,
      "reform": 1169,
      "coh": 1170,
      "doivent": 1171,
      "ainsi": 1172,
      "bud": 1173,
      "temps": 1174,
      "sommes": 1175,
      "put": 1176,
      "Madam": 1177,
      "even": 1178,
      "ales": 1179,
      "moins": 1180,
      "grand": 1181,
      "mention": 1182,
      "ies": 1183,
      "sor": 1184,
      "éli": 1185,
      "lex": 1186,
      "prendre": 1187,
      "services": 1188,
      "could": 1189,
      "ret": 1190,
      "docu": 1191,
      "protection": 1192,
      "cat": 1193,
      "set": 1194,
      "acti": 1195,
      "how": 1196,
      "want": 1197,
      "cond": 1198,
      "try": 1199,
      "région": 1200,
      "avoir": 1201,
      "bles": 1202,
      "had": 1203,
      "jur": 1204,
      "well": 1205,
      "appe": 1206,
      "creas": 1207,
      "structure": 1208,
      "ca": 1209,
      "inte": 1210,
      "transpar": 1211,
      "ference": 1212,
      "environnement": 1213,
      "own": 1214,
      "pon": 1215,
      "opinion": 1216,
      "jou": 1217,
      "pl": 1218,
      "quer": 1219,
      "process": 1220,
      "ack": 1221,
      "local": 1222,
      "cipe": 1223,
      "exemp": 1224,
      "same": 1225,
      "gislation": 1226,
      "marché": 1227,
      "dur": 1228,
      "cher": 1229,
      "actions": 1230,
      "fonction": 1231,
      "cult": 1232,
      "two": 1233,
      "ième": 1234,
      "autre": 1235,
      "stat": 1236,
      "area": 1237,
      "vision": 1238,
      "course": 1239,
      "syst": 1240,
      "férence": 1241,
      "meas": 1242,
      "vention": 1243,
      "Mais": 1244,
      "Re": 1245,
      "So": 1246,
      "solu": 1247,
      "peration": 1248,
      "Pour": 1249,
      "increas": 1250,
      "ande": 1251,
      "ced": 1252,
      "adminis": 1253,
      "Mrs": 1254,
      "enir": 1255,
      "tiz": 1256,
      "sieurs": 1257,
      "citiz": 1258,
      "politiques": 1259,
      "centr": 1260,
      "fa": 1261,
      "said": 1262,
      "today": 1263,
      "tech": 1264,
      "peri": 1265,
      "fication": 1266,
      "appli": 1267,
      "much": 1268,
      "ents": 1269,
      "provi": 1270,
      "agit": 1271,
      "effet": 1272,
      "principe": 1273,
      "administra": 1274,
      "reso": 1275,
      "amment": 1276,
      "gie": 1277,
      "cannot": 1278,
      "trop": 1279,
      "points": 1280,
      "afin": 1281,
      "bes": 1282,
      "inst": 1283,
      "ellement": 1284,
      "mesures": 1285,
      "years": 1286,
      "instru": 1287,
      "regu": 1288,
      "iste": 1289,
      "suc": 1290,
      "Aust": 1291,
      "ass": 1292,
      "contra": 1293,
      "parce": 1294,
      "savoir": 1295,
      "Prodi": 1296,
      "Austri": 1297,
      "ensure": 1298,
      "law": 1299,
      "constru": 1300,
      "popu": 1301,
      "venir": 1302,
      "jours": 1303,
      "land": 1304,
      "last": 1305,
      "cho": 1306,
      "against": 1307,
      "rê": 1308,
      "exist": 1309,
      "common": 1310,
      "That": 1311,
      "ru": 1312,
      "ory": 1313,
      "may": 1314,
      "taken": 1315,
      "Se": 1316,
      "différ": 1317,
      "utilis": 1318,
      "qual": 1319,
      "sive": 1320,
      "dure": 1321,
      "permet": 1322,
      "uses": 1323,
      "compte": 1324,
      "self": 1325,
      "system": 1326,
      "fre": 1327,
      "aides": 1328,
      "votre": 1329,
      "opport": 1330,
      "entreprises": 1331,
      "considé": 1332,
      "droit": 1333,
      "géné": 1334,
      "rai": 1335,
      "pération": 1336,
      "gration": 1337,
      "gisla": 1338,
      "still": 1339,
      "However": 1340,
      "level": 1341,
      "Mme": 1342,
      "UE": 1343,
      "posed": 1344,
      "pris": 1345,
      "effic": 1346,
      "effective": 1347,
      "contrôle": 1348,
      "every": 1349,
      "spé": 1350,
      "uvre": 1351,
      "expres": 1352,
      "toutes": 1353,
      "communic": 1354,
      "cted": 1355,
      "éta": 1356,
      "sui": 1357,
      "case": 1358,
      "particularly": 1359,
      "sing": 1360,
      "confi": 1361,
      "procé": 1362,
      "application": 1363,
      "seulement": 1364,
      "Ch": 1365,
      "pens": 1366,
      "tif": 1367,
      "leurs": 1368,
      "ghts": 1369,
      "regional": 1370,
      "coura": 1371,
      "élar": 1372,
      "requi": 1373,
      "necess": 1374,
      "contro": 1375,
      "souh": 1376,
      "cisions": 1377,
      "idi": 1378,
      "quelle": 1379,
      "illeurs": 1380,
      "principle": 1381,
      "aî": 1382,
      "là": 1383,
      "sci": 1384,
      "quent": 1385,
      "sec": 1386,
      "ordre": 1387,
      "ablish": 1388,
      "garanti": 1389,
      "juridi": 1390,
      "Am": 1391,
      "tal": 1392,
      "ances": 1393,
      "establish": 1394,
      "given": 1395,
      "speci": 1396,
      "achie": 1397,
      "raison": 1398,
      "problèmes": 1399,
      "information": 1400,
      "lines": 1401,
      "reas": 1402,
      "ouse": 1403,
      "project": 1404,
      "moi": 1405,
      "els": 1406,
      "ateurs": 1407,
      "mande": 1408,
      "aines": 1409,
      "conditions": 1410,
      "citizens": 1411,
      "mom": 1412,
      "rough": 1413,
      "merci": 1414,
      "oin": 1415,
      "yen": 1416,
      "soli": 1417,
      "fici": 1418,
      "bilité": 1419,
      "domaine": 1420,
      "hand": 1421,
      "ning": 1422,
      "vons": 1423,
      "rieur": 1424,
      "serait": 1425,
      "démocrati": 1426,
      "Commissaire": 1427,
      "heure": 1428,
      "enda": 1429,
      "shi": 1430,
      "ability": 1431,
      "emploi": 1432,
      "organis": 1433,
      "asi": 1434,
      "ici": 1435,
      "role": 1436,
      "rodu": 1437,
      "introdu": 1438,
      "ound": 1439,
      "interest": 1440,
      "amendments": 1441,
      "budget": 1442,
      "measures": 1443,
      "sp": 1444,
      "remerci": 1445,
      "aly": 1446,
      "ceux": 1447,
      "force": 1448,
      "suff": 1449,
      "terr": 1450,
      "loo": 1451,
      "certains": 1452,
      "country": 1453,
      "représent": 1454,
      "terms": 1455,
      "moment": 1456,
      "omme": 1457,
      "promo": 1458,
      "why": 1459,
      "good": 1460,
      "initiatives": 1461,
      "Cela": 1462,
      "communautaire": 1463,
      "rons": 1464,
      "though": 1465,
      "invol": 1466,
      "decision": 1467,
      "demande": 1468,
      "dies": 1469,
      "exclu": 1470,
      "grande": 1471,
      "Ko": 1472,
      "through": 1473,
      "proces": 1474,
      "responsabilité": 1475,
      "décision": 1476,
      "ctor": 1477,
      "shall": 1478,
      "hope": 1479,
      "lieu": 1480,
      "example": 1481,
      "Cour": 1482,
      "ister": 1483,
      "semb": 1484,
      "particip": 1485,
      "pouvoir": 1486,
      "attention": 1487,
      "nature": 1488,
      "Dans": 1489,
      "Treat": 1490,
      "fety": 1491,
      "sous": 1492,
      "lations": 1493,
      "propositions": 1494,
      "avez": 1495,
      "colle": 1496,
      "give": 1497,
      "problems": 1498,
      "Treaty": 1499,
      "four": 1500,
      "pay": 1501,
      "ensemble": 1502,
      "droits": 1503,
      "wish": 1504,
      "résolution": 1505,
      "agri": 1506,
      "high": 1507,
      "problème": 1508,
      "ship": 1509,
      "Is": 1510,
      "ones": 1511,
      "lab": 1512,
      "sidence": 1513,
      "nex": 1514,
      "stri": 1515,
      "rich": 1516,
      "lob": 1517,
      "pourquoi": 1518,
      "issues": 1519,
      "concerned": 1520,
      "cooperation": 1521,
      "amendements": 1522,
      "système": 1523,
      "processus": 1524,
      "recy": 1525,
      "ately": 1526,
      "souhait": 1527,
      "resul": 1528,
      "décla": 1529,
      "strate": 1530,
      "communication": 1531,
      "vant": 1532,
      "inde": 1533,
      "assu": 1534,
      "consé": 1535,
      "second": 1536,
      "prof": 1537,
      "gue": 1538,
      "thank": 1539,
      "judi": 1540,
      "charge": 1541,
      "projets": 1542,
      "Au": 1543,
      "deal": 1544,
      "legal": 1545,
      "beh": 1546,
      "fonds": 1547,
      "largement": 1548,
      "necessary": 1549,
      "orient": 1550,
      "proch": 1551,
      "résul": 1552,
      "compé": 1553,
      "ader": 1554,
      "ount": 1555,
      "souti": 1556,
      "criti": 1557,
      "ud": 1558,
      "réforme": 1559,
      "impro": 1560,
      "toujours": 1561,
      "signi": 1562,
      "liber": 1563,
      "efforts": 1564,
      "solid": 1565,
      "Gr": 1566,
      "flex": 1567,
      "ss": 1568,
      "fort": 1569,
      "tain": 1570,
      "président": 1571,
      "cally": 1572,
      "intérê": 1573,
      "Fun": 1574,
      "House": 1575,
      "vient": 1576,
      "mbers": 1577,
      "number": 1578,
      "capit": 1579,
      "exemple": 1580,
      "Fr": 1581,
      "If": 1582,
      "Si": 1583,
      "dency": 1584,
      "gener": 1585,
      "tation": 1586,
      "répon": 1587,
      "dépu": 1588,
      "international": 1589,
      "safety": 1590,
      "nouveau": 1591,
      "since": 1592,
      "était": 1593,
      "clo": 1594,
      "represent": 1595,
      "let": 1596,
      "vement": 1597,
      "before": 1598,
      "aider": 1599,
      "world": 1600,
      "particulier": 1601,
      "suite": 1602,
      "soient": 1603,
      "aving": 1604,
      "strat": 1605,
      "lée": 1606,
      "ordin": 1607,
      "few": 1608,
      "nouvelle": 1609,
      "aucoup": 1610,
      "both": 1611,
      "coopération": 1612,
      "objectifs": 1613,
      "real": 1614,
      "loc": 1615,
      "avis": 1616,
      "appropri": 1617,
      "face": 1618,
      "enne": 1619,
      "oration": 1620,
      "cies": 1621,
      "présidence": 1622,
      "Fin": 1623,
      "modi": 1624,
      "claire": 1625,
      "trois": 1626,
      "An": 1627,
      "RE": 1628,
      "pi": 1629,
      "off": 1630,
      "beaucoup": 1631,
      "vious": 1632,
      "notamment": 1633,
      "besoin": 1634,
      "But": 1635,
      "af": 1636,
      "aspect": 1637,
      "edom": 1638,
      "partie": 1639,
      "rès": 1640,
      "ortu": 1641,
      "expri": 1642,
      "cost": 1643,
      "commune": 1644,
      "monde": 1645,
      "Ar": 1646,
      "BA": 1647,
      "Portu": 1648,
      "urther": 1649,
      "pol": 1650,
      "ctural": 1651,
      "élargis": 1652,
      "AL": 1653,
      "lons": 1654,
      "guide": 1655,
      "whether": 1656,
      "nécessaire": 1657,
      "employment": 1658,
      "années": 1659,
      "ref": 1660,
      "cili": 1661,
      "loy": 1662,
      "agenda": 1663,
      "après": 1664,
      "agement": 1665,
      "Members": 1666,
      "sociale": 1667,
      "differ": 1668,
      "crois": 1669,
      "llow": 1670,
      "row": 1671,
      "chers": 1672,
      "défin": 1673,
      "without": 1674,
      "straté": 1675,
      "10": 1676,
      "Qu": 1677,
      "mul": 1678,
      "éle": 1679,
      "évo": 1680,
      "analy": 1681,
      "dition": 1682,
      "hel": 1683,
      "rappe": 1684,
      "however": 1685,
      "fondament": 1686,
      "next": 1687,
      "élargissement": 1688,
      "mission": 1689,
      "vrai": 1690,
      "laquelle": 1691,
      "aster": 1692,
      "cir": 1693,
      "wel": 1694,
      "commissaire": 1695,
      "soulig": 1696,
      "examin": 1697,
      "assist": 1698,
      "Group": 1699,
      "Li": 1700,
      "UR": 1701,
      "fais": 1702,
      "tin": 1703,
      "article": 1704,
      "poser": 1705,
      "améli": 1706,
      "prise": 1707,
      "quelques": 1708,
      "dre": 1709,
      "jo": 1710,
      "mal": 1711,
      "rôle": 1712,
      "zones": 1713,
      "extre": 1714,
      "voit": 1715,
      "serious": 1716,
      "satis": 1717,
      "subject": 1718,
      "continu": 1719,
      "document": 1720,
      "avi": 1721,
      "ésion": 1722,
      "encoura": 1723,
      "ats": 1724,
      "publi": 1725,
      "current": 1726,
      "base": 1727,
      "juridique": 1728,
      "URBA": 1729,
      "IN": 1730,
      "St": 1731,
      "Tra": 1732,
      "cles": 1733,
      "nel": 1734,
      "aide": 1735,
      "cts": 1736,
      "going": 1737,
      "ign": 1738,
      "guidelines": 1739,
      "URBAN": 1740,
      "Aut": 1741,
      "aw": 1742,
      "pai": 1743,
      "wer": 1744,
      "ster": 1745,
      "rights": 1746,
      "making": 1747,
      "mainten": 1748,
      "mesure": 1749,
      "connais": 1750,
      "fau": 1751,
      "pen": 1752,
      "sout": 1753,
      "ways": 1754,
      "inno": 1755,
      "alf": 1756,
      "add": 1757,
      "fie": 1758,
      "fier": 1759,
      "positive": 1760,
      "text": 1761,
      "favour": 1762,
      "responsibility": 1763,
      "done": 1764,
      "idé": 1765,
      "ode": 1766,
      "inv": 1767,
      "appr": 1768,
      "avenir": 1769,
      "Conference": 1770,
      "devrait": 1771,
      "Leader": 1772,
      "concernant": 1773,
      "proposals": 1774,
      "occu": 1775,
      "activ": 1776,
      "resolution": 1777,
      "look": 1778,
      "résultat": 1779,
      "AD": 1780,
      "ling": 1781,
      "itor": 1782,
      "art": 1783,
      "lim": 1784,
      "termin": 1785,
      "Koso": 1786,
      "gin": 1787,
      "glob": 1788,
      "vil": 1789,
      "éri": 1790,
      "enlargement": 1791,
      "limit": 1792,
      "prog": 1793,
      "dial": 1794,
      "mage": 1795,
      "exer": 1796,
      "something": 1797,
      "governmental": 1798,
      "continue": 1799,
      "ft": 1800,
      "ry": 1801,
      "wards": 1802,
      "iller": 1803,
      "intérieur": 1804,
      "government": 1805,
      "gen": 1806,
      "sû": 1807,
      "étu": 1808,
      "onti": 1809,
      "dépend": 1810,
      "stry": 1811,
      "donné": 1812,
      "première": 1813,
      "secteur": 1814,
      "For": 1815,
      "Sch": 1816,
      "aise": 1817,
      "har": 1818,
      "down": 1819,
      "type": 1820,
      "pouvons": 1821,
      "occa": 1822,
      "personnes": 1823,
      "construction": 1824,
      "projects": 1825,
      "help": 1826,
      "extreme": 1827,
      "12": 1828,
      "border": 1829,
      "back": 1830,
      "éner": 1831,
      "once": 1832,
      "abord": 1833,
      "direct": 1834,
      "curity": 1835,
      "environmental": 1836,
      "fully": 1837,
      "acceptable": 1838,
      "instrument": 1839,
      "REG": 1840,
      "Kosovo": 1841,
      "LE": 1842,
      "lit": 1843,
      "tour": 1844,
      "reco": 1845,
      "lais": 1846,
      "rale": 1847,
      "sector": 1848,
      "means": 1849,
      "oblig": 1850,
      "problem": 1851,
      "freedom": 1852,
      "Al": 1853,
      "TER": 1854,
      "UAL": 1855,
      "fave": 1856,
      "pra": 1857,
      "élé": 1858,
      "ates": 1859,
      "riche": 1860,
      "favor": 1861,
      "INTER": 1862,
      "INTERREG": 1863,
      "EQ": 1864,
      "IG": 1865,
      "gré": 1866,
      "sm": 1867,
      "var": 1868,
      "ément": 1869,
      "alors": 1870,
      "acité": 1871,
      "porte": 1872,
      "follow": 1873,
      "Presidency": 1874,
      "account": 1875,
      "Interreg": 1876,
      "control": 1877,
      "specific": 1878,
      "ADER": 1879,
      "LEADER": 1880,
      "EQUAL": 1881,
      "Cet": 1882,
      "atte": 1883,
      "ned": 1884,
      "cha": 1885,
      "serv": 1886,
      "manu": 1887,
      "agreement": 1888,
      "Austria": 1889,
      "scienti": 1890,
      "State": 1891,
      "faveur": 1892,
      "cing": 1893,
      "word": 1894,
      "ank": 1895,
      "legislation": 1896,
      "side": 1897,
      "rather": 1898,
      "semble": 1899,
      "déf": 1900,
      "européennes": 1901,
      "tenir": 1902,
      "certaine": 1903,
      "affe": 1904,
      "gouvernementale": 1905,
      "industry": 1906,
      "What": 1907,
      "règlement": 1908,
      "catas": 1909,
      "Isra": 1910,
      "ciliation": 1911,
      "her": 1912,
      "mont": 1913,
      "nent": 1914,
      "resources": 1915,
      "absolu": 1916,
      "prend": 1917,
      "discrimin": 1918,
      "mind": 1919,
      "internal": 1920,
      "caution": 1921,
      "cru": 1922,
      "institution": 1923,
      "bonne": 1924,
      "small": 1925,
      "lin": 1926,
      "ward": 1927,
      "als": 1928,
      "life": 1929,
      "proposed": 1930,
      "ird": 1931,
      "comment": 1932,
      "000": 1933,
      "istes": 1934,
      "front": 1935,
      "basis": 1936,
      "millions": 1937,
      "peuvent": 1938,
      "cise": 1939,
      "line": 1940,
      "sens": 1941,
      "lable": 1942,
      "arri": 1943,
      "coming": 1944,
      "ctives": 1945,
      "tribu": 1946,
      "Assemb": 1947,
      "participation": 1948,
      "gn": 1949,
      "mmes": 1950,
      "van": 1951,
      "ôt": 1952,
      "recomm": 1953,
      "ited": 1954,
      "towards": 1955,
      "security": 1956,
      "medi": 1957,
      "airs": 1958,
      "population": 1959,
      "suffis": 1960,
      "after": 1961,
      "Autriche": 1962,
      "bus": 1963,
      "econom": 1964,
      "further": 1965,
      "sc": 1966,
      "envis": 1967,
      "ort": 1968,
      "mentaire": 1969,
      "offi": 1970,
      "mois": 1971,
      "aper": 1972,
      "traité": 1973,
      "égard": 1974,
      "understand": 1975,
      "usement": 1976,
      "aucun": 1977,
      "risk": 1978,
      "unique": 1979,
      "Messieurs": 1980,
      "cultural": 1981,
      "A5": 1982,
      "ailleurs": 1983,
      "ctu": 1984,
      "ral": 1985,
      "ente": 1986,
      "ating": 1987,
      "omen": 1988,
      "six": 1989,
      "lut": 1990,
      "donner": 1991,
      "ressources": 1992,
      "amendement": 1993,
      "félic": 1994,
      "techni": 1995,
      "require": 1996,
      "reason": 1997,
      "practi": 1998,
      "economy": 1999,
      "CO": 2000,
      "ged": 2001,
      "job": 2002,
      "ront": 2003,
      "vale": 2004,
      "ought": 2005,
      "attend": 2006,
      "terme": 2007,
      "ages": 2008,
      "col": 2009,
      "commit": 2010,
      "goci": 2011,
      "respon": 2012,
      "speak": 2013,
      "service": 2014,
      "particulièrement": 2015,
      "difficul": 2016,
      "France": 2017,
      "Assemblée": 2018,
      "eu": 2019,
      "lier": 2020,
      "aug": 2021,
      "pren": 2022,
      "surtout": 2023,
      "intergouvernementale": 2024,
      "Conférence": 2025,
      "voulons": 2026,
      "human": 2027,
      "environment": 2028,
      "objectives": 2029,
      "authorities": 2030,
      "happ": 2031,
      "net": 2032,
      "pare": 2033,
      "inqui": 2034,
      "rece": 2035,
      "tives": 2036,
      "proce": 2037,
      "coordin": 2038,
      "policies": 2039,
      "négoci": 2040,
      "whole": 2041,
      "selves": 2042,
      "économie": 2043,
      "concerns": 2044,
      "adopted": 2045,
      "texte": 2046,
      "Amster": 2047,
      "flexi": 2048,
      "busines": 2049,
      "Amsterdam": 2050,
      "sen": 2051,
      "late": 2052,
      "tel": 2053,
      "telle": 2054,
      "porter": 2055,
      "européens": 2056,
      "cially": 2057,
      "clearly": 2058,
      "année": 2059,
      "danger": 2060,
      "rules": 2061,
      "Article": 2062,
      "chaque": 2063,
      "Br": 2064,
      "Min": 2065,
      "quite": 2066,
      "raient": 2067,
      "rions": 2068,
      "amb": 2069,
      "précis": 2070,
      "open": 2071,
      "month": 2072,
      "femmes": 2073,
      "discussion": 2074,
      "Fir": 2075,
      "era": 2076,
      "oute": 2077,
      "ari": 2078,
      "celle": 2079,
      "chose": 2080,
      "goti": 2081,
      "contrô": 2082,
      "espère": 2083,
      "quality": 2084,
      "clairement": 2085,
      "Ber": 2086,
      "ever": 2087,
      "having": 2088,
      "év": 2089,
      "évi": 2090,
      "three": 2091,
      "requ": 2092,
      "negoti": 2093,
      "propose": 2094,
      "peace": 2095,
      "respe": 2096,
      "rien": 2097,
      "exig": 2098,
      "pourrait": 2099,
      "rapide": 2100,
      "tenu": 2101,
      "nationaux": 2102,
      "subsi": 2103,
      "achieve": 2104,
      "Cette": 2105,
      "First": 2106,
      "You": 2107,
      "ow": 2108,
      "ran": 2109,
      "tim": 2110,
      "quant": 2111,
      "meille": 2112,
      "exce": 2113,
      "endant": 2114,
      "vidu": 2115,
      "key": 2116,
      "Intergovernmental": 2117,
      "greater": 2118,
      "individu": 2119,
      "hon": 2120,
      "refer": 2121,
      "depuis": 2122,
      "rations": 2123,
      "auté": 2124,
      "meet": 2125,
      "cident": 2126,
      "taking": 2127,
      "disaster": 2128,
      "importante": 2129,
      "clair": 2130,
      "hicu": 2131,
      "étaire": 2132,
      "gestion": 2133,
      "accept": 2134,
      "dames": 2135,
      "damental": 2136,
      "Mesdames": 2137,
      "sorte": 2138,
      "soutien": 2139,
      "dès": 2140,
      "ey": 2141,
      "each": 2142,
      "çon": 2143,
      "redu": 2144,
      "lir": 2145,
      "forward": 2146,
      "term": 2147,
      "comes": 2148,
      "gether": 2149,
      "seront": 2150,
      "finance": 2151,
      "turer": 2152,
      "législa": 2153,
      "pendant": 2154,
      "relations": 2155,
      "véhicu": 2156,
      "solidar": 2157,
      "députés": 2158,
      "Haider": 2159,
      "da": 2160,
      "lè": 2161,
      "oth": 2162,
      "pa": 2163,
      "tle": 2164,
      "inves": 2165,
      "democrati": 2166,
      "lead": 2167,
      "qué": 2168,
      "train": 2169,
      "autom": 2170,
      "food": 2171,
      "pression": 2172,
      "working": 2173,
      "cars": 2174,
      "behalf": 2175,
      "extremely": 2176,
      "augment": 2177,
      "ele": 2178,
      "ien": 2179,
      "task": 2180,
      "ug": 2181,
      "women": 2182,
      "arante": 2183,
      "together": 2184,
      "conciliation": 2185,
      "active": 2186,
      "fied": 2187,
      "passé": 2188,
      "These": 2189,
      "groups": 2190,
      "implementation": 2191,
      "règles": 2192,
      "Social": 2193,
      "administration": 2194,
      "success": 2195,
      "liberté": 2196,
      "manufac": 2197,
      "Tob": 2198,
      "bé": 2199,
      "yet": 2200,
      "espe": 2201,
      "celui": 2202,
      "ably": 2203,
      "coû": 2204,
      "avait": 2205,
      "quels": 2206,
      "nouvelles": 2207,
      "Portugu": 2208,
      "welcome": 2209,
      "excell": 2210,
      "Tobin": 2211,
      "rent": 2212,
      "rele": 2213,
      "ato": 2214,
      "proper": 2215,
      "rédu": 2216,
      "extr": 2217,
      "formation": 2218,
      "changes": 2219,
      "identi": 2220,
      "energy": 2221,
      "responsible": 2222,
      "various": 2223,
      "manufacturer": 2224,
      "15": 2225,
      "call": 2226,
      "creat": 2227,
      "fy": 2228,
      "itself": 2229,
      "parlement": 2230,
      "antes": 2231,
      "combat": 2232,
      "addition": 2233,
      "législation": 2234,
      "1997": 2235,
      "quelles": 2236,
      "création": 2237,
      "groupes": 2238,
      "autorités": 2239,
      "structurels": 2240,
      "opportunity": 2241,
      "efficace": 2242,
      "garantir": 2243,
      "Court": 2244,
      "especially": 2245,
      "Portuguese": 2246,
      "extrême": 2247,
      "Vous": 2248,
      "bal": 2249,
      "bure": 2250,
      "fs": 2251,
      "ogue": 2252,
      "pur": 2253,
      "used": 2254,
      "inf": 2255,
      "annu": 2256,
      "libre": 2257,
      "cile": 2258,
      "exper": 2259,
      "tran": 2260,
      "committee": 2261,
      "précé": 2262,
      "prevent": 2263,
      "comple": 2264,
      "membre": 2265,
      "corre": 2266,
      "autorité": 2267,
      "indre": 2268,
      "mentioned": 2269,
      "period": 2270,
      "provide": 2271,
      "different": 2272,
      "occasion": 2273,
      "Go": 2274,
      "ub": 2275,
      "équi": 2276,
      "lemen": 2277,
      "conf": 2278,
      "sug": 2279,
      "décisions": 2280,
      "ager": 2281,
      "They": 2282,
      "mploy": 2283,
      "feel": 2284,
      "jusqu": 2285,
      "deuxième": 2286,
      "certainly": 2287,
      "million": 2288,
      "essential": 2289,
      "authority": 2290,
      "régionale": 2291,
      "spéci": 2292,
      "laboration": 2293,
      "faudra": 2294,
      "sûr": 2295,
      "cin": 2296,
      "mor": 2297,
      "oil": 2298,
      "sto": 2299,
      "esion": 2300,
      "least": 2301,
      "tely": 2302,
      "moyen": 2303,
      "possibilité": 2304,
      "étab": 2305,
      "aucune": 2306,
      "premier": 2307,
      "gentlemen": 2308,
      "cohésion": 2309,
      "façon": 2310,
      "procédure": 2311,
      "judici": 2312,
      "general": 2313,
      "paix": 2314,
      "maintenant": 2315,
      "Et": 2316,
      "Ob": 2317,
      "den": 2318,
      "tor": 2319,
      "rely": 2320,
      "tiens": 2321,
      "anim": 2322,
      "ori": 2323,
      "road": 2324,
      "always": 2325,
      "atta": 2326,
      "asse": 2327,
      "condu": 2328,
      "dimen": 2329,
      "moder": 2330,
      "crit": 2331,
      "avantage": 2332,
      "logique": 2333,
      "assurer": 2334,
      "Co": 2335,
      "hist": 2336,
      "prati": 2337,
      "endu": 2338,
      "defin": 2339,
      "theless": 2340,
      "argu": 2341,
      "allow": 2342,
      "consul": 2343,
      "réalis": 2344,
      "did": 2345,
      "compro": 2346,
      "portug": 2347,
      "agrap": 2348,
      "voie": 2349,
      "while": 2350,
      "guarante": 2351,
      "affaires": 2352,
      "intention": 2353,
      "communautaires": 2354,
      "période": 2355,
      "during": 2356,
      "multi": 2357,
      "Bar": 2358,
      "Rap": 2359,
      "Tur": 2360,
      "Une": 2361,
      "ben": 2362,
      "clé": 2363,
      "gence": 2364,
      "reach": 2365,
      "entes": 2366,
      "legisla": 2367,
      "quand": 2368,
      "confir": 2369,
      "light": 2370,
      "seul": 2371,
      "mean": 2372,
      "paragrap": 2373,
      "accomp": 2374,
      "code": 2375,
      "approach": 2376,
      "funds": 2377,
      "frame": 2378,
      "techno": 2379,
      "opportun": 2380,
      "interests": 2381,
      "remercier": 2382,
      "joint": 2383,
      "At": 2384,
      "Dé": 2385,
      "Elle": 2386,
      "Po": 2387,
      "ia": 2388,
      "ires": 2389,
      "recent": 2390,
      "another": 2391,
      "outre": 2392,
      "associ": 2393,
      "racy": 2394,
      "rée": 2395,
      "mondi": 2396,
      "needs": 2397,
      "selon": 2398,
      "médi": 2399,
      "espace": 2400,
      "involved": 2401,
      "Com": 2402,
      "sant": 2403,
      "really": 2404,
      "lequel": 2405,
      "Commun": 2406,
      "five": 2407,
      "mariti": 2408,
      "buil": 2409,
      "draw": 2410,
      "apply": 2411,
      "régional": 2412,
      "step": 2413,
      "contribution": 2414,
      "demander": 2415,
      "aura": 2416,
      "III": 2417,
      "transparence": 2418,
      "différents": 2419,
      "recei": 2420,
      "democratic": 2421,
      "80": 2422,
      "He": 2423,
      "cès": 2424,
      "davantage": 2425,
      "nements": 2426,
      "vehi": 2427,
      "secu": 2428,
      "tée": 2429,
      "ventions": 2430,
      "minim": 2431,
      "1998": 2432,
      "certaines": 2433,
      "société": 2434,
      "alimentaire": 2435,
      "taxe": 2436,
      "financiers": 2437,
      "documents": 2438,
      "single": 2439,
      "assistance": 2440,
      "progress": 2441,
      "dialogue": 2442,
      "véhicules": 2443,
      "indépend": 2444,
      "quat": 2445,
      "ladies": 2446,
      "ches": 2447,
      "become": 2448,
      "parten": 2449,
      "voy": 2450,
      "immi": 2451,
      "plusieurs": 2452,
      "minor": 2453,
      "présenter": 2454,
      "better": 2455,
      "domaines": 2456,
      "doub": 2457,
      "utilisation": 2458,
      "aît": 2459,
      "vraiment": 2460,
      "circu": 2461,
      "idée": 2462,
      "months": 2463,
      "subsidi": 2464,
      "LA": 2465,
      "ME": 2466,
      "My": 2467,
      "tur": 2468,
      "éval": 2469,
      "third": 2470,
      "decisions": 2471,
      "constat": 2472,
      "wee": 2473,
      "avai": 2474,
      "find": 2475,
      "money": 2476,
      "hold": 2477,
      "play": 2478,
      "renfor": 2479,
      "subst": 2480,
      "fronti": 2481,
      "regarding": 2482,
      "dernier": 2483,
      "transparency": 2484,
      "result": 2485,
      "indeed": 2486,
      "lutte": 2487,
      "mployment": 2488,
      "14": 2489,
      "20": 2490,
      "cô": 2491,
      "fam": 2492,
      "ods": 2493,
      "concep": 2494,
      "déci": 2495,
      "déta": 2496,
      "ither": 2497,
      "gere": 2498,
      "United": 2499,
      "regret": 2500,
      "ness": 2501,
      "cependant": 2502,
      "consomm": 2503,
      "lanc": 2504,
      "create": 2505,
      "fran": 2506,
      "créer": 2507,
      "dangere": 2508,
      "increase": 2509,
      "dimension": 2510,
      "portugaise": 2511,
      "13": 2512,
      "Comme": 2513,
      "Fon": 2514,
      "Mar": 2515,
      "remar": 2516,
      "itable": 2517,
      "alth": 2518,
      "existe": 2519,
      "victi": 2520,
      "tenti": 2521,
      "previous": 2522,
      "nouveaux": 2523,
      "longer": 2524,
      "pleas": 2525,
      "fundamental": 2526,
      "tructural": 2527,
      "conséqu": 2528,
      "fortun": 2529,
      "discrimination": 2530,
      "béné": 2531,
      "framework": 2532,
      "Aff": 2533,
      "cation": 2534,
      "event": 2535,
      "fai": 2536,
      "hab": 2537,
      "ête": 2538,
      "lack": 2539,
      "sible": 2540,
      "fiques": 2541,
      "past": 2542,
      "ctures": 2543,
      "intervention": 2544,
      "nationales": 2545,
      "collègue": 2546,
      "bring": 2547,
      "intérêt": 2548,
      "Funds": 2549,
      "aware": 2550,
      "automob": 2551,
      "Lan": 2552,
      "Mo": 2553,
      "Or": 2554,
      "ade": 2555,
      "kind": 2556,
      "tons": 2557,
      "vér": 2558,
      "isme": 2559,
      "lay": 2560,
      "start": 2561,
      "mocr": 2562,
      "vio": 2563,
      "ateur": 2564,
      "manif": 2565,
      "souvent": 2566,
      "titude": 2567,
      "intégration": 2568,
      "2006": 2569,
      "toutefois": 2570,
      "difficult": 2571,
      "conclusions": 2572,
      "transports": 2573,
      "regulations": 2574,
      "Finally": 2575,
      "souligner": 2576,
      "catastrop": 2577,
      "available": 2578,
      "Fonds": 2579,
      "ath": 2580,
      "gation": 2581,
      "ism": 2582,
      "chô": 2583,
      "dispar": 2584,
      "share": 2585,
      "idea": 2586,
      "constitue": 2587,
      "normes": 2588,
      "orientations": 2589,
      "And": 2590,
      "aspects": 2591,
      "énergie": 2592,
      "précédent": 2593,
      "LAF": 2594,
      "CE": 2595,
      "Structural": 2596,
      "cture": 2597,
      "ks": 2598,
      "oper": 2599,
      "estime": 2600,
      "infr": 2601,
      "tique": 2602,
      "iser": 2603,
      "cient": 2604,
      "formes": 2605,
      "super": 2606,
      "gies": 2607,
      "discu": 2608,
      "might": 2609,
      "nationale": 2610,
      "industri": 2611,
      "essentiel": 2612,
      "majority": 2613,
      "doute": 2614,
      "plans": 2615,
      "conséquent": 2616,
      "signific": 2617,
      "Traité": 2618,
      "words": 2619,
      "experts": 2620,
      "subsidiar": 2621,
      "\".": 2622,
      "Sy": 2623,
      "care": 2624,
      "eli": 2625,
      "kes": 2626,
      "navi": 2627,
      "tiers": 2628,
      "quo": 2629,
      "urban": 2630,
      "conv": 2631,
      "motion": 2632,
      "près": 2633,
      "commer": 2634,
      "avan": 2635,
      "montre": 2636,
      "special": 2637,
      "étant": 2638,
      "Enfin": 2639,
      "things": 2640,
      "including": 2641,
      "conclusion": 2642,
      "increasing": 2643,
      "choses": 2644,
      "confiance": 2645,
      "profes": 2646,
      "connaiss": 2647,
      "coordination": 2648,
      "ging": 2649,
      "hap": 2650,
      "ming": 2651,
      "sage": 2652,
      "anies": 2653,
      "often": 2654,
      "construc": 2655,
      "nothing": 2656,
      "due": 2657,
      "dispos": 2658,
      "série": 2659,
      "économiques": 2660,
      "based": 2661,
      "lignes": 2662,
      "puisse": 2663,
      "actually": 2664,
      "volont": 2665,
      "nécessité": 2666,
      "contraire": 2667,
      "express": 2668,
      "organisations": 2669,
      "remercie": 2670,
      "promotion": 2671,
      "résultats": 2672,
      "harmon": 2673,
      "valeurs": 2674,
      "vehicles": 2675,
      "OLAF": 2676,
      "Paper": 2677,
      "ton": 2678,
      "ists": 2679,
      "ped": 2680,
      "potenti": 2681,
      "begin": 2682,
      "expect": 2683,
      "grat": 2684,
      "preu": 2685,
      "region": 2686,
      "effici": 2687,
      "réglement": 2688,
      "lorsqu": 2689,
      "territo": 2690,
      "colleag": 2691,
      "intérêts": 2692,
      "capital": 2693,
      "frontali": 2694,
      "rapidement": 2695,
      "Affairs": 2696,
      "..": 2697,
      "19": 2698,
      "25": 2699,
      "Eri": 2700,
      "hen": 2701,
      "hau": 2702,
      "ka": 2703,
      "xim": 2704,
      "tic": 2705,
      "ised": 2706,
      "enter": 2707,
      "orig": 2708,
      "qualité": 2709,
      "tez": 2710,
      "radi": 2711,
      "consu": 2712,
      "ily": 2713,
      "power": 2714,
      "union": 2715,
      "accident": 2716,
      "abo": 2717,
      "vos": 2718,
      "management": 2719,
      "observ": 2720,
      "companies": 2721,
      "devant": 2722,
      "emplois": 2723,
      "White": 2724,
      "matters": 2725,
      "explo": 2726,
      "publique": 2727,
      "Minister": 2728,
      "bureauc": 2729,
      "habit": 2730,
      "az": 2731,
      "blanc": 2732,
      "date": 2733,
      "ep": 2734,
      "grow": 2735,
      "homme": 2736,
      "éch": 2737,
      "deci": 2738,
      "democ": 2739,
      "entendu": 2740,
      "asses": 2741,
      "veux": 2742,
      "conse": 2743,
      "lies": 2744,
      "sema": 2745,
      "chall": 2746,
      "stain": 2747,
      "Party": 2748,
      "autrich": 2749,
      "dernière": 2750,
      "efficacité": 2751,
      "Amend": 2752,
      "recogn": 2753,
      "certainement": 2754,
      "éviter": 2755,
      "negotiations": 2756,
      "excellent": 2757,
      "cinq": 2758,
      "gratu": 2759,
      "Car": 2760,
      "ala": 2761,
      "best": 2762,
      "mand": 2763,
      "phi": 2764,
      "tôt": 2765,
      "convient": 2766,
      "diction": 2767,
      "suffi": 2768,
      "moyens": 2769,
      "among": 2770,
      "fix": 2771,
      "dispositions": 2772,
      "sais": 2773,
      "mieux": 2774,
      "supp": 2775,
      "situ": 2776,
      "relative": 2777,
      "values": 2778,
      "include": 2779,
      "difficile": 2780,
      "centralis": 2781,
      "expressed": 2782,
      "Livre": 2783,
      "amélio": 2784,
      "benef": 2785,
      "catastrophe": 2786,
      "Erika": 2787,
      "Ag": 2788,
      "Ces": 2789,
      "Hul": 2790,
      "Our": 2791,
      "tom": 2792,
      "éco": 2793,
      "enfin": 2794,
      "enough": 2795,
      "times": 2796,
      "alle": 2797,
      "nelle": 2798,
      "rable": 2799,
      "strie": 2800,
      "dér": 2801,
      "precise": 2802,
      "devrions": 2803,
      "visant": 2804,
      "industrie": 2805,
      "cohesion": 2806,
      "général": 2807,
      "démocratique": 2808,
      "appropriate": 2809,
      "voitures": 2810,
      "soutenir": 2811,
      "Hulten": 2812,
      "Dan": 2813,
      "Mon": 2814,
      "bour": 2815,
      "demon": 2816,
      "urb": 2817,
      "post": 2818,
      "exten": 2819,
      "experi": 2820,
      "ambi": 2821,
      "fique": 2822,
      "mbre": 2823,
      "commen": 2824,
      "distribu": 2825,
      "short": 2826,
      "autant": 2827,
      "établis": 2828,
      "principes": 2829,
      "principles": 2830,
      "lorsque": 2831,
      "integr": 2832,
      "Austrian": 2833,
      "démocratie": 2834,
      "dangerous": 2835,
      "legislative": 2836,
      "haps": 2837,
      "bri": 2838,
      "centre": 2839,
      "ew": 2840,
      "ez": 2841,
      "emb": 2842,
      "ition": 2843,
      "espr": 2844,
      "alest": 2845,
      "never": 2846,
      "veiller": 2847,
      "ourselves": 2848,
      "excep": 2849,
      "appar": 2850,
      "voted": 2851,
      "trou": 2852,
      "show": 2853,
      "euros": 2854,
      "parties": 2855,
      "fond": 2856,
      "upon": 2857,
      "objective": 2858,
      "effectu": 2859,
      "nombreuses": 2860,
      "recyc": 2861,
      "rappeler": 2862,
      "procedure": 2863,
      "respec": 2864,
      "training": 2865,
      "modern": 2866,
      "fortunately": 2867,
      "C5": 2868,
      "Tout": 2869,
      "cs": 2870,
      "fri": 2871,
      "sence": 2872,
      "recher": 2873,
      "med": 2874,
      "réjou": 2875,
      "rices": 2876,
      "trouver": 2877,
      "doing": 2878,
      "strong": 2879,
      "mono": 2880,
      "devraient": 2881,
      "égalité": 2882,
      "rench": 2883,
      "concerning": 2884,
      "production": 2885,
      "majorité": 2886,
      "simple": 2887,
      "improve": 2888,
      "crucial": 2889,
      "jobs": 2890,
      "happen": 2891,
      "request": 2892,
      "French": 2893,
      "cand": 2894,
      "eded": 2895,
      "fish": 2896,
      "gau": 2897,
      "rendre": 2898,
      "san": 2899,
      "vu": 2900,
      "vont": 2901,
      "wr": 2902,
      "wat": 2903,
      "relation": 2904,
      "although": 2905,
      "urgent": 2906,
      "context": 2907,
      "chi": 2908,
      "propre": 2909,
      "bear": 2910,
      "note": 2911,
      "amp": 2912,
      "quelque": 2913,
      "crè": 2914,
      "sels": 2915,
      "full": 2916,
      "EUR": 2917,
      "actuelle": 2918,
      "simply": 2919,
      "réponse": 2920,
      "stratégie": 2921,
      "ambiti": 2922,
      "chômage": 2923,
      "democracy": 2924,
      "challen": 2925,
      "esprit": 2926,
      "Jus": 2927,
      "Toute": 2928,
      "llement": 2929,
      "mê": 2930,
      "til": 2931,
      "demain": 2932,
      "const": 2933,
      "destin": 2934,
      "aim": 2935,
      "acqu": 2936,
      "unemployment": 2937,
      "move": 2938,
      "pourra": 2939,
      "ampe": 2940,
      "gueur": 2941,
      "nés": 2942,
      "prepare": 2943,
      "direction": 2944,
      "compet": 2945,
      "emphas": 2946,
      "engag": 2947,
      "personnel": 2948,
      "statement": 2949,
      "actuellement": 2950,
      "financier": 2951,
      "standards": 2952,
      "recycla": 2953,
      "déclaration": 2954,
      "strategy": 2955,
      "little": 2956,
      "preuve": 2957,
      "candid": 2958,
      "))": 2959,
      "50": 2960,
      "EC": 2961,
      "With": 2962,
      "vri": 2963,
      "indis": 2964,
      "sements": 2965,
      "peux": 2966,
      "comité": 2967,
      "compris": 2968,
      "streng": 2969,
      "monitor": 2970,
      "complex": 2971,
      "priv": 2972,
      "importants": 2973,
      "session": 2974,
      "impli": 2975,
      "pendent": 2976,
      "governments": 2977,
      "raisons": 2978,
      "informations": 2979,
      "solutions": 2980,
      "instruments": 2981,
      "négociations": 2982,
      "maritime": 2983,
      "infras": 2984,
      "Ti": 2985,
      "coup": 2986,
      "hors": 2987,
      "tice": 2988,
      "anted": 2989,
      "dered": 2990,
      "simi": 2991,
      "conform": 2992,
      "unanim": 2993,
      "dés": 2994,
      "ablement": 2995,
      "agir": 2996,
      "voter": 2997,
      "posé": 2998,
      "manque": 2999,
      "directives": 3000,
      "itement": 3001,
      "partner": 3002,
      "cases": 3003,
      "effect": 3004,
      "constitution": 3005,
      "discussions": 3006,
      "facil": 3007,
      "aître": 3008,
      "fourn": 3009,
      "IGC": 3010,
      "balance": 3011,
      "Dépu": 3012,
      "mêmes": 3013,
      "Offi": 3014,
      "Pe": 3015,
      "Tampe": 3016,
      "font": 3017,
      "free": 3018,
      "sources": 3019,
      "êtes": 3020,
      "total": 3021,
      "tell": 3022,
      "restri": 3023,
      "parler": 3024,
      "expéri": 3025,
      "perspe": 3026,
      "trade": 3027,
      "structural": 3028,
      "lish": 3029,
      "adoption": 3030,
      "croiss": 3031,
      "cross": 3032,
      "nombreux": 3033,
      "amendment": 3034,
      "logical": 3035,
      "effort": 3036,
      "criminal": 3037,
      "existence": 3038,
      "suivre": 3039,
      "heureusement": 3040,
      "following": 3041,
      "exigences": 3042,
      "others": 3043,
      "extrêmement": 3044,
      "frontières": 3045,
      "améliorer": 3046,
      "Tampere": 3047,
      "ajou": 3048,
      "sense": 3049,
      "tâ": 3050,
      "êche": 3051,
      "ino": 3052,
      "remain": 3053,
      "eral": 3054,
      "concrè": 3055,
      "reste": 3056,
      "réellement": 3057,
      "adap": 3058,
      "ends": 3059,
      "ctro": 3060,
      "ussi": 3061,
      "veness": 3062,
      "goods": 3063,
      "faite": 3064,
      "knowled": 3065,
      "aurait": 3066,
      "implemented": 3067,
      "integration": 3068,
      "fonctionn": 3069,
      "confidence": 3070,
      "souhaite": 3071,
      "examiner": 3072,
      "encourage": 3073,
      "official": 3074,
      "requirements": 3075,
      "meeting": 3076,
      "Communauté": 3077,
      "profession": 3078,
      "Toutefois": 3079,
      "Nations": 3080,
      "ctement": 3081,
      "fall": 3082,
      "mou": 3083,
      "name": 3084,
      "old": 3085,
      "octro": 3086,
      "sis": 3087,
      "tar": 3088,
      "test": 3089,
      "ennent": 3090,
      "ani": 3091,
      "entra": 3092,
      "ites": 3093,
      "veut": 3094,
      "peup": 3095,
      "sustain": 3096,
      "mode": 3097,
      "hear": 3098,
      "voi": 3099,
      "fight": 3100,
      "trouve": 3101,
      "minu": 3102,
      "carri": 3103,
      "présente": 3104,
      "Cependant": 3105,
      "aties": 3106,
      "renouve": 3107,
      "approved": 3108,
      "gouvernements": 3109,
      "explic": 3110,
      "Second": 3111,
      "tifs": 3112,
      "exclusion": 3113,
      "agriculture": 3114,
      "currently": 3115,
      "occup": 3116,
      "bénéfici": 3117,
      "volonté": 3118,
      "infrastru": 3119,
      "Bal": 3120,
      "CIG": 3121,
      "basi": 3122,
      "igh": 3123,
      "mises": 3124,
      "pte": 3125,
      "ilo": 3126,
      "cice": 3127,
      "true": 3128,
      "vities": 3129,
      "plutôt": 3130,
      "venu": 3131,
      "Inde": 3132,
      "carry": 3133,
      "draft": 3134,
      "juste": 3135,
      "signal": 3136,
      "marchés": 3137,
      "jud": 3138,
      "markets": 3139,
      "activities": 3140,
      "fonctionnement": 3141,
      "administrative": 3142,
      "results": 3143,
      "close": 3144,
      "souten": 3145,
      "exercice": 3146,
      "coûts": 3147,
      "influ": 3148,
      "quatre": 3149,
      "precisely": 3150,
      "indispens": 3151,
      "Mal": 3152,
      "Ri": 3153,
      "amais": 3154,
      "either": 3155,
      "mers": 3156,
      "pau": 3157,
      "ude": 3158,
      "vité": 3159,
      "refu": 3160,
      "titre": 3161,
      "asy": 3162,
      "concent": 3163,
      "congratu": 3164,
      "unes": 3165,
      "civil": 3166,
      "dic": 3167,
      "diver": 3168,
      "termes": 3169,
      "quick": 3170,
      "head": 3171,
      "impression": 3172,
      "gic": 3173,
      "précaution": 3174,
      "message": 3175,
      "graphi": 3176,
      "accor": 3177,
      "symp": 3178,
      "affir": 3179,
      "travailleurs": 3180,
      "nécessaires": 3181,
      "consideration": 3182,
      "financière": 3183,
      "appelle": 3184,
      "activités": 3185,
      "directrices": 3186,
      "correct": 3187,
      "consommateurs": 3188,
      "sufficient": 3189,
      "recycling": 3190,
      "Office": 3191,
      "Cul": 3192,
      "Dire": 3193,
      "ile": 3194,
      "sche": 3195,
      "uary": 3196,
      "quali": 3197,
      "seen": 3198,
      "proced": 3199,
      "access": 3200,
      "comments": 3201,
      "Europol": 3202,
      "obvious": 3203,
      "precaution": 3204,
      "accès": 3205,
      "party": 3206,
      "consci": 3207,
      "cris": 3208,
      "crime": 3209,
      "society": 3210,
      "seems": 3211,
      "engage": 3212,
      "marchand": 3213,
      "function": 3214,
      "organisation": 3215,
      "risques": 3216,
      "sujets": 3217,
      "simplement": 3218,
      "regulation": 3219,
      "analyse": 3220,
      "address": 3221,
      "élément": 3222,
      "doubt": 3223,
      "renforcer": 3224,
      "constructeurs": 3225,
      "benefit": 3226,
      "recyclage": 3227,
      "precautionary": 3228,
      "Ap": 3229,
      "Kinno": 3230,
      "dè": 3231,
      "eth": 3232,
      "jamais": 3233,
      "vation": 3234,
      "war": 3235,
      "ze": 3236,
      "rez": 3237,
      "anci": 3238,
      "oub": 3239,
      "orrow": 3240,
      "concre": 3241,
      "live": 3242,
      "stress": 3243,
      "divers": 3244,
      "adh": 3245,
      "cula": 3246,
      "ayant": 3247,
      "grave": 3248,
      "inspe": 3249,
      "étaient": 3250,
      "funding": 3251,
      "citoyen": 3252,
      "takes": 3253,
      "fail": 3254,
      "secteurs": 3255,
      "représentants": 3256,
      "representatives": 3257,
      "approu": 3258,
      "guarantee": 3259,
      "prepared": 3260,
      "strengthen": 3261,
      "partnership": 3262,
      "Kinnock": 3263,
      "Ex": 3264,
      "To": 3265,
      "fel": 3266,
      "sco": 3267,
      "vit": 3268,
      "threat": 3269,
      "repe": 3270,
      "assur": 3271,
      "tels": 3272,
      "liability": 3273,
      "iles": 3274,
      "début": 3275,
      "vigueur": 3276,
      "permettre": 3277,
      "nég": 3278,
      "obst": 3279,
      "fonde": 3280,
      "partage": 3281,
      "présenté": 3282,
      "issant": 3283,
      "petites": 3284,
      "board": 3285,
      "asked": 3286,
      "included": 3287,
      "corpor": 3288,
      "priority": 3289,
      "condition": 3290,
      "grands": 3291,
      "locales": 3292,
      "states": 3293,
      "provided": 3294,
      "promote": 3295,
      "prochaine": 3296,
      "compéti": 3297,
      "signifie": 3298,
      "répondre": 3299,
      "stratégi": 3300,
      "fondamentaux": 3301,
      "manufacturers": 3302,
      "Govern": 3303,
      "Obje": 3304,
      "assez": 3305,
      "régionales": 3306,
      "franç": 3307,
      "pleased": 3308,
      "above": 3309,
      "bureaucrati": 3310,
      "Balk": 3311,
      "\",": 3312,
      "AC": 3313,
      "Ger": 3314,
      "cée": 3315,
      "fis": 3316,
      "fla": 3317,
      "him": 3318,
      "ial": 3319,
      "lor": 3320,
      "rend": 3321,
      "âce": 3322,
      "argent": 3323,
      "attitude": 3324,
      "nels": 3325,
      "needed": 3326,
      "conne": 3327,
      "provision": 3328,
      "réf": 3329,
      "régu": 3330,
      "ported": 3331,
      "wed": 3332,
      "soon": 3333,
      "trait": 3334,
      "final": 3335,
      "strand": 3336,
      "née": 3337,
      "venus": 3338,
      "Thank": 3339,
      "ody": 3340,
      "sociaux": 3341,
      "contribuer": 3342,
      "risque": 3343,
      "double": 3344,
      "budg": 3345,
      "grandes": 3346,
      "Reg": 3347,
      "central": 3348,
      "effectivement": 3349,
      "reasons": 3350,
      "refus": 3351,
      "global": 3352,
      "éléments": 3353,
      "technical": 3354,
      "businesses": 3355,
      "contrôles": 3356,
      "range": 3357,
      "solidarity": 3358,
      "évaluation": 3359,
      "manifest": 3360,
      "tomorrow": 3361,
      "Government": 3362,
      "Pre": 3363,
      "cord": 3364,
      "gne": 3365,
      "lent": 3366,
      "mment": 3367,
      "yer": 3368,
      "ini": 3369,
      "def": 3370,
      "quate": 3371,
      "telles": 3372,
      "member": 3373,
      "poin": 3374,
      "réalité": 3375,
      "forces": 3376,
      "agre": 3377,
      "tains": 3378,
      "viend": 3379,
      "serve": 3380,
      "keep": 3381,
      "objet": 3382,
      "centrale": 3383,
      "renew": 3384,
      "développer": 3385,
      "adopté": 3386,
      "responsabil": 3387,
      "fraud": 3388,
      "tabled": 3389,
      "dernières": 3390,
      "indic": 3391,
      "périph": 3392,
      "ièmement": 3393,
      "différentes": 3394,
      "considération": 3395,
      "costs": 3396,
      "field": 3397,
      "recommand": 3398,
      "inquiétu": 3399,
      "sensi": 3400,
      "meilleure": 3401,
      "territoire": 3402,
      "origin": 3403,
      "assess": 3404,
      "Justice": 3405,
      "Tibet": 3406,
      "indispensable": 3407,
      "Culture": 3408,
      "Be": 3409,
      "Ir": 3410,
      "PE": 3411,
      "Palest": 3412,
      "ive": 3413,
      "list": 3414,
      "savons": 3415,
      "vise": 3416,
      "én": 3417,
      "ond": 3418,
      "remo": 3419,
      "remind": 3420,
      "tient": 3421,
      "itation": 3422,
      "roed": 3423,
      "contexte": 3424,
      "provis": 3425,
      "stre": 3426,
      "parliament": 3427,
      "weak": 3428,
      "veral": 3429,
      "extent": 3430,
      "perhaps": 3431,
      "nées": 3432,
      "nier": 3433,
      "istent": 3434,
      "transfrontali": 3435,
      "clari": 3436,
      "importantes": 3437,
      "considered": 3438,
      "submit": 3439,
      "impact": 3440,
      "mater": 3441,
      "accepter": 3442,
      "raised": 3443,
      "rurales": 3444,
      "appliquer": 3445,
      "courage": 3446,
      "science": 3447,
      "Fund": 3448,
      "exprimer": 3449,
      "invest": 3450,
      "Schroed": 3451,
      "business": 3452,
      "Firstly": 3453,
      "investi": 3454,
      "week": 3455,
      "décidé": 3456,
      "dangereuses": 3457,
      "recherche": 3458,
      "quickly": 3459,
      "Schroedter": 3460,
      "Per": 3461,
      "Patten": 3462,
      "bur": 3463,
      "bun": 3464,
      "body": 3465,
      "gre": 3466,
      "hommes": 3467,
      "nations": 3468,
      "she": 3469,
      "wise": 3470,
      "espé": 3471,
      "debat": 3472,
      "lables": 3473,
      "toire": 3474,
      "liv": 3475,
      "resear": 3476,
      "rés": 3477,
      "rées": 3478,
      "parvenir": 3479,
      "détermin": 3480,
      "makes": 3481,
      "exact": 3482,
      "aged": 3483,
      "ctors": 3484,
      "utes": 3485,
      "discip": 3486,
      "Theato": 3487,
      "légi": 3488,
      "curren": 3489,
      "structures": 3490,
      "reports": 3491,
      "bilités": 3492,
      "nuclé": 3493,
      "examen": 3494,
      "cks": 3495,
      "presented": 3496,
      "priorities": 3497,
      "seule": 3498,
      "suiv": 3499,
      "évolution": 3500,
      "analysis": 3501,
      "Israel": 3502,
      "commitment": 3503,
      "individual": 3504,
      "établir": 3505,
      "Syri": 3506,
      "fonctionnaires": 3507,
      "carried": 3508,
      "Secondly": 3509,
      "Cer": 3510,
      "avo": 3511,
      "bit": 3512,
      "clar": 3513,
      "equal": 3514,
      "gest": 3515,
      "ima": 3516,
      "mér": 3517,
      "sal": 3518,
      "wers": 3519,
      "anmoins": 3520,
      "iso": 3521,
      "decla": 3522,
      "delay": 3523,
      "laire": 3524,
      "att": 3525,
      "ets": 3526,
      "several": 3527,
      "promou": 3528,
      "ings": 3529,
      "dépens": 3530,
      "décharge": 3531,
      "answer": 3532,
      "ester": 3533,
      "mains": 3534,
      "version": 3535,
      "exté": 3536,
      "ago": 3537,
      "apport": 3538,
      "cole": 3539,
      "gime": 3540,
      "grès": 3541,
      "grâce": 3542,
      "tences": 3543,
      "consac": 3544,
      "whose": 3545,
      "hier": 3546,
      "touch": 3547,
      "puisque": 3548,
      "demandé": 3549,
      "firstly": 3550,
      "agreements": 3551,
      "priorités": 3552,
      "succès": 3553,
      "pollu": 3554,
      "précisément": 3555,
      "solidarité": 3556,
      "partenari": 3557,
      "Amendment": 3558,
      "experience": 3559,
      "conformément": 3560,
      "obstac": 3561,
      "Balkans": 3562,
      "pointed": 3563,
      "research": 3564,
      "17": 3565,
      "All": 3566,
      "Let": 3567,
      "cteurs": 3568,
      "dû": 3569,
      "element": 3570,
      "operation": 3571,
      "pes": 3572,
      "phas": 3573,
      "pêche": 3574,
      "élaboration": 3575,
      "arti": 3576,
      "tota": 3577,
      "conférence": 3578,
      "progrès": 3579,
      "ressed": 3580,
      "unacceptable": 3581,
      "rière": 3582,
      "adres": 3583,
      "modè": 3584,
      "pourrons": 3585,
      "dois": 3586,
      "using": 3587,
      "discharge": 3588,
      "item": 3589,
      "soule": 3590,
      "cism": 3591,
      "caract": 3592,
      "donne": 3593,
      "lande": 3594,
      "nuclear": 3595,
      "value": 3596,
      "responsable": 3597,
      "planning": 3598,
      "durable": 3599,
      "resol": 3600,
      "utiliser": 3601,
      "générale": 3602,
      "established": 3603,
      "specifi": 3604,
      "strategic": 3605,
      "prochaines": 3606,
      "limited": 3607,
      "atteindre": 3608,
      "absolutely": 3609,
      "recommend": 3610,
      "medium": 3611,
      "practical": 3612,
      "difficultés": 3613,
      "creating": 3614,
      "fami": 3615,
      "Langen": 3616,
      "marchandises": 3617,
      "scope": 3618,
      "responsabilités": 3619,
      "caractère": 3620,
      "-,": 3621,
      "11": 3622,
      "30": 3623,
      "40": 3624,
      "Hels": 3625,
      "adé": 3626,
      "dy": 3627,
      "fut": 3628,
      "ras": 3629,
      "von": 3630,
      "ël": 3631,
      "enni": 3632,
      "reti": 3633,
      "celles": 3634,
      "choi": 3635,
      "stage": 3636,
      "révision": 3637,
      "référence": 3638,
      "réflex": 3639,
      "rig": 3640,
      "parmi": 3641,
      "noti": 3642,
      "acun": 3643,
      "aband": 3644,
      "ctur": 3645,
      "pers": 3646,
      "carte": 3647,
      "court": 3648,
      "possibilités": 3649,
      "intégré": 3650,
      "workers": 3651,
      "travailler": 3652,
      "justifi": 3653,
      "relating": 3654,
      "maintain": 3655,
      "inki": 3656,
      "correspon": 3657,
      "Notre": 3658,
      "financières": 3659,
      "chois": 3660,
      "procéd": 3661,
      "independent": 3662,
      "compétences": 3663,
      "faisant": 3664,
      "continuer": 3665,
      "obligation": 3666,
      "practice": 3667,
      "reached": 3668,
      "opportunities": 3669,
      "Poli": 3670,
      "received": 3671,
      "minimum": 3672,
      "conséquences": 3673,
      "automobile": 3674,
      "potential": 3675,
      "colleagues": 3676,
      "monitoring": 3677,
      "croissance": 3678,
      "officials": 3679,
      "Appla": 3680,
      "Premi": 3681,
      "promouvoir": 3682,
      "specifically": 3683,
      "Helsinki": 3684,
      "18": 3685,
      "Of": 3686,
      "aking": 3687,
      "faction": 3688,
      "ique": 3689,
      "ible": 3690,
      "mation": 3691,
      "ol": 3692,
      "sau": 3693,
      "thy": 3694,
      "inc": 3695,
      "rep": 3696,
      "reign": 3697,
      "erre": 3698,
      "deta": 3699,
      "devoir": 3700,
      "itan": 3701,
      "rése": 3702,
      "réformes": 3703,
      "acces": 3704,
      "dép": 3705,
      "absence": 3706,
      "movement": 3707,
      "agne": 3708,
      "grant": 3709,
      "prehen": 3710,
      "former": 3711,
      "formul": 3712,
      "transactions": 3713,
      "fications": 3714,
      "communes": 3715,
      "justement": 3716,
      "proposé": 3717,
      "approche": 3718,
      "adopter": 3719,
      "puissent": 3720,
      "capacité": 3721,
      "When": 3722,
      "fraude": 3723,
      "increased": 3724,
      "appliqu": 3725,
      "applied": 3726,
      "pensons": 3727,
      "capitaux": 3728,
      "exprim": 3729,
      "Portugal": 3730,
      "amélioration": 3731,
      "affected": 3732,
      "collaboration": 3733,
      "financement": 3734,
      "parole": 3735,
      "faudrait": 3736,
      "attach": 3737,
      "paragraphe": 3738,
      "autrichien": 3739,
      "knowledge": 3740,
      "basic": 3741,
      "influence": 3742,
      "currency": 3743,
      "abandon": 3744,
      "Deux": 3745,
      "One": 3746,
      "Pub": 3747,
      "PPE": 3748,
      "Ro": 3749,
      "Tre": 3750,
      "cra": 3751,
      "fas": 3752,
      "ographi": 3753,
      "enz": 3754,
      "ince": 3755,
      "annon": 3756,
      "delà": 3757,
      "later": 3758,
      "ality": 3759,
      "offer": 3760,
      "réfu": 3761,
      "accu": 3762,
      "lot": 3763,
      "exter": 3764,
      "extra": 3765,
      "exchange": 3766,
      "extend": 3767,
      "held": 3768,
      "health": 3769,
      "apporter": 3770,
      "cure": 3771,
      "immedi": 3772,
      "outside": 3773,
      "partir": 3774,
      "minist": 3775,
      "called": 3776,
      "safe": 3777,
      "positif": 3778,
      "classi": 3779,
      "1996": 3780,
      "fear": 3781,
      "causes": 3782,
      "actes": 3783,
      "plain": 3784,
      "criter": 3785,
      "effects": 3786,
      "pleine": 3787,
      "regards": 3788,
      "responsables": 3789,
      "bonnes": 3790,
      "phy": 3791,
      "changement": 3792,
      "derniers": 3793,
      "achieved": 3794,
      "forcement": 3795,
      "throughout": 3796,
      "strict": 3797,
      "député": 3798,
      "Traités": 3799,
      "villes": 3800,
      "atteint": 3801,
      "scientifiques": 3802,
      "évident": 3803,
      "Barnier": 3804,
      "paragraph": 3805,
      "victimes": 3806,
      "convain": 3807,
      "connaissance": 3808,
      "consequ": 3809,
      "semaine": 3810,
      "congratulate": 3811,
      "budgétaire": 3812,
      "périphéri": 3813,
      "Policy": 3814,
      "Public": 3815,
      ").": 3816,
      "Tr": 3817,
      "cte": 3818,
      "hob": 3819,
      "vée": 3820,
      "évent": 3821,
      "êt": 3822,
      "incorpor": 3823,
      "reconn": 3824,
      "dep": 3825,
      "lear": 3826,
      "alloc": 3827,
      "atri": 3828,
      "ators": 3829,
      "siè": 3830,
      "etary": 3831,
      "raux": 3832,
      "sectors": 3833,
      "lesquels": 3834,
      "stor": 3835,
      "desp": 3836,
      "acte": 3837,
      "dég": 3838,
      "sol": 3839,
      "maxim": 3840,
      "logy": 3841,
      "comprendre": 3842,
      "comprend": 3843,
      "comprehen": 3844,
      "vois": 3845,
      "culation": 3846,
      "coali": 3847,
      "pron": 3848,
      "préoccup": 3849,
      "interventions": 3850,
      "biais": 3851,
      "accorder": 3852,
      "rapports": 3853,
      "crise": 3854,
      "creation": 3855,
      "produit": 3856,
      "saying": 3857,
      "accords": 3858,
      "phes": 3859,
      "applicable": 3860,
      "Therefore": 3861,
      "implementing": 3862,
      "reforms": 3863,
      "appear": 3864,
      "introduction": 3865,
      "spir": 3866,
      "représente": 3867,
      "naturellement": 3868,
      "wishes": 3869,
      "judicial": 3870,
      "behind": 3871,
      "absolument": 3872,
      "envisage": 3873,
      "investis": 3874,
      "atoire": 3875,
      "arguments": 3876,
      "compromis": 3877,
      "santé": 3878,
      "growth": 3879,
      "water": 3880,
      "sustainable": 3881,
      "refuge": 3882,
      "procédures": 3883,
      "Treaties": 3884,
      "coalition": 3885,
      "Bel": 3886,
      "Elles": 3887,
      "Flor": 3888,
      "Jon": 3889,
      "fil": 3890,
      "fair": 3891,
      "link": 3892,
      "zed": 3893,
      "éla": 3894,
      "écu": 3895,
      "état": 3896,
      "rejet": 3897,
      "conven": 3898,
      "contenu": 3899,
      "sta": 3900,
      "rester": 3901,
      "résou": 3902,
      "forth": 3903,
      "parle": 3904,
      "maje": 3905,
      "exi": 3906,
      "exécu": 3907,
      "volet": 3908,
      "vig": 3909,
      "vice": 3910,
      "cting": 3911,
      "Unis": 3912,
      "partici": 3913,
      "monétaire": 3914,
      "content": 3915,
      "prix": 3916,
      "spee": 3917,
      "sociales": 3918,
      "droite": 3919,
      "matique": 3920,
      "adopt": 3921,
      "accordance": 3922,
      "expli": 3923,
      "retard": 3924,
      "Report": 3925,
      "existing": 3926,
      "establishing": 3927,
      "malheureusement": 3928,
      "féliciter": 3929,
      "technique": 3930,
      "difficulties": 3931,
      "pratique": 3932,
      "turn": 3933,
      "significant": 3934,
      "extension": 3935,
      "établissement": 3936,
      "exception": 3937,
      "fournir": 3938,
      "sympath": 3939,
      "procedures": 3940,
      "ethni": 3941,
      "adhésion": 3942,
      "connection": 3943,
      "esterday": 3944,
      "réfugi": 3945,
      "périphériques": 3946,
      "despite": 3947,
      "Florenz": 3948,
      "010": 3949,
      "Do": 3950,
      "Des": 3951,
      "Wo": 3952,
      "card": 3953,
      "gni": 3954,
      "hy": 3955,
      "hard": 3956,
      "ik": 3957,
      "mant": 3958,
      "mill": 3959,
      "run": 3960,
      "vés": 3961,
      "esti": 3962,
      "ensur": 3963,
      "reconstruction": 3964,
      "dele": 3965,
      "entend": 3966,
      "lac": 3967,
      "sidér": 3968,
      "tot": 3969,
      "chance": 3970,
      "propres": 3971,
      "stated": 3972,
      "until": 3973,
      "descri": 3974,
      "acro": 3975,
      "acteurs": 3976,
      "loin": 3977,
      "Commissioners": 3978,
      "pétro": 3979,
      "ussels": 3980,
      "ophob": 3981,
      "focus": 3982,
      "internationale": 3983,
      "complè": 3984,
      "drawn": 3985,
      "ressor": 3986,
      "bodies": 3987,
      "longtemps": 3988,
      "according": 3989,
      "engagement": 3990,
      "personne": 3991,
      "constituent": 3992,
      "views": 3993,
      "Char": 3994,
      "talking": 3995,
      "satisfaction": 3996,
      "activité": 3997,
      "progres": 3998,
      "favoris": 3999,
      "uniquement": 4000,
      "félicite": 4001,
      "response": 4002,
      "proceed": 4003,
      "Brussels": 4004,
      "successful": 4005,
      "relevant": 4006,
      "annual": 4007,
      "pratiques": 4008,
      "mondialisation": 4009,
      "immigration": 4010,
      "concept": 4011,
      "situations": 4012,
      "écologique": 4013,
      "commencer": 4014,
      "challenge": 4015,
      "acquis": 4016,
      "Indeed": 4017,
      "criteria": 4018,
      "Trans": 4019,
      "résoudre": 4020,
      "Wogau": 4021,
      "sidérur": 4022,
      "16": 4023,
      "Ire": 4024,
      "Mc": 4025,
      "Pala": 4026,
      "Ques": 4027,
      "Sa": 4028,
      "gens": 4029,
      "home": 4030,
      "mau": 4031,
      "none": 4032,
      "route": 4033,
      "spend": 4034,
      "vaux": 4035,
      "élu": 4036,
      "énor": 4037,
      "ensuite": 4038,
      "reference": 4039,
      "ceci": 4040,
      "ase": 4041,
      "condam": 4042,
      "living": 4043,
      "chacun": 4044,
      "powers": 4045,
      "rép": 4046,
      "paration": 4047,
      "démocr": 4048,
      "lum": 4049,
      "exces": 4050,
      "mot": 4051,
      "usage": 4052,
      "travaux": 4053,
      "ultra": 4054,
      "Ils": 4055,
      "possibility": 4056,
      "issaires": 4057,
      "steel": 4058,
      "demment": 4059,
      "ministre": 4060,
      "permettant": 4061,
      "required": 4062,
      "asile": 4063,
      "modification": 4064,
      "seriously": 4065,
      "limité": 4066,
      "damage": 4067,
      "augmentation": 4068,
      "Turkey": 4069,
      "navires": 4070,
      "commerce": 4071,
      "supplé": 4072,
      "integrated": 4073,
      "modernisation": 4074,
      "réjouis": 4075,
      "fishing": 4076,
      "ajouter": 4077,
      "namely": 4078,
      "entraî": 4079,
      "concentration": 4080,
      "crisis": 4081,
      "spirit": 4082,
      "Belgi": 4083,
      "Ireland": 4084,
      "Fe": 4085,
      "Mer": 4086,
      "Never": 4087,
      "Voil": 4088,
      "eco": 4089,
      "gro": 4090,
      "mas": 4091,
      "presi": 4092,
      "score": 4093,
      "xen": 4094,
      "ète": 4095,
      "évé": 4096,
      "étran": 4097,
      "reç": 4098,
      "recon": 4099,
      "tirer": 4100,
      "isse": 4101,
      "ising": 4102,
      "ouch": 4103,
      "lat": 4104,
      "lated": 4105,
      "attemp": 4106,
      "attent": 4107,
      "attribu": 4108,
      "rab": 4109,
      "concentr": 4110,
      "lities": 4111,
      "ource": 4112,
      "cio": 4113,
      "treat": 4114,
      "heer": 4115,
      "voting": 4116,
      "impossible": 4117,
      "passer": 4118,
      "gible": 4119,
      "giving": 4120,
      "préci": 4121,
      "server": 4122,
      "inty": 4123,
      "oppos": 4124,
      "guard": 4125,
      "plupart": 4126,
      "insister": 4127,
      "prestation": 4128,
      "séance": 4129,
      "1994": 4130,
      "certainty": 4131,
      "credi": 4132,
      "myself": 4133,
      "trophes": 4134,
      "matéri": 4135,
      "ckheer": 4136,
      "continent": 4137,
      "formed": 4138,
      "Nos": 4139,
      "How": 4140,
      "levels": 4141,
      "instance": 4142,
      "procéder": 4143,
      "riches": 4144,
      "globalisation": 4145,
      "genre": 4146,
      "favorable": 4147,
      "catastrophes": 4148,
      "suffisamment": 4149,
      "tasks": 4150,
      "judiciaire": 4151,
      "histori": 4152,
      "compromise": 4153,
      "technologi": 4154,
      "véritable": 4155,
      "discuter": 4156,
      "subsidiarité": 4157,
      "subsidiarity": 4158,
      "observations": 4159,
      "Objective": 4160,
      "assessment": 4161,
      "itanni": 4162,
      "pleinement": 4163,
      "Jonckheer": 4164,
      "exige": 4165,
      "réfugiés": 4166,
      "Palacio": 4167,
      "Voilà": 4168,
      "xenophob": 4169,
      "81": 4170,
      "PÖ": 4171,
      "Ru": 4172,
      "Some": 4173,
      "broad": 4174,
      "dits": 4175,
      "gers": 4176,
      "opé": 4177,
      "spo": 4178,
      "uer": 4179,
      "yesterday": 4180,
      "envoy": 4181,
      "thought": 4182,
      "rement": 4183,
      "ann": 4184,
      "left": 4185,
      "atory": 4186,
      "sized": 4187,
      "nelles": 4188,
      "urge": 4189,
      "urgence": 4190,
      "vered": 4191,
      "raise": 4192,
      "ously": 4193,
      "forte": 4194,
      "dict": 4195,
      "aces": 4196,
      "déb": 4197,
      "défi": 4198,
      "comb": 4199,
      "ports": 4200,
      "poursuivre": 4201,
      "voté": 4202,
      "jeunes": 4203,
      "via": 4204,
      "else": 4205,
      "police": 4206,
      "traiter": 4207,
      "ounds": 4208,
      "uxelles": 4209,
      "goes": 4210,
      "souci": 4211,
      "transfer": 4212,
      "Convention": 4213,
      "devra": 4214,
      "community": 4215,
      "publics": 4216,
      "themselves": 4217,
      "libé": 4218,
      "systems": 4219,
      "setting": 4220,
      "lands": 4221,
      "everyone": 4222,
      "territor": 4223,
      "looking": 4224,
      "exclusive": 4225,
      "pouvoirs": 4226,
      "orientation": 4227,
      "locaux": 4228,
      "penser": 4229,
      "borders": 4230,
      "tourisme": 4231,
      "scientific": 4232,
      "institutional": 4233,
      "scale": 4234,
      "speakers": 4235,
      "Bruxelles": 4236,
      "created": 4237,
      "pursu": 4238,
      "completely": 4239,
      "stop": 4240,
      "moyennes": 4241,
      "consultation": 4242,
      "secutor": 4243,
      "circum": 4244,
      "circulation": 4245,
      "constater": 4246,
      "côté": 4247,
      "efficiency": 4248,
      "consumer": 4249,
      "decided": 4250,
      "perspective": 4251,
      "concrètes": 4252,
      "Regional": 4253,
      "agreed": 4254,
      "stream": 4255,
      "ministres": 4256,
      "03": 4257,
      "Ac": 4258,
      "Afri": 4259,
      "SA": 4260,
      "Ser": 4261,
      "away": 4262,
      "xé": 4263,
      "inking": 4264,
      "quanti": 4265,
      "laires": 4266,
      "etc": 4267,
      "rail": 4268,
      "contain": 4269,
      "régime": 4270,
      "unfortunately": 4271,
      "desire": 4272,
      "forest": 4273,
      "diminu": 4274,
      "délé": 4275,
      "heard": 4276,
      "amount": 4277,
      "volu": 4278,
      "impos": 4279,
      "importe": 4280,
      "jeu": 4281,
      "viennent": 4282,
      "dossi": 4283,
      "perfe": 4284,
      "permis": 4285,
      "disposer": 4286,
      "tradu": 4287,
      "aller": 4288,
      "ounts": 4289,
      "ground": 4290,
      "granted": 4291,
      "politics": 4292,
      "directement": 4293,
      "complé": 4294,
      "comptes": 4295,
      "communauté": 4296,
      "fondé": 4297,
      "implic": 4298,
      "sitting": 4299,
      "socialistes": 4300,
      "firm": 4301,
      "overall": 4302,
      "constituer": 4303,
      "britanni": 4304,
      "sinc": 4305,
      "measure": 4306,
      "everything": 4307,
      "quently": 4308,
      "étudi": 4309,
      "COM": 4310,
      "disasters": 4311,
      "complete": 4312,
      "critères": 4313,
      "argument": 4314,
      "échelle": 4315,
      "brief": 4316,
      "candidats": 4317,
      "renouvelables": 4318,
      "renewable": 4319,
      "provisions": 4320,
      "avoid": 4321,
      "phase": 4322,
      "Nevertheless": 4323,
      "circumst": 4324,
      "xéno": 4325,
      "Bien": 4326,
      "CA": 4327,
      "Monti": 4328,
      "Rom": 4329,
      "ber": 4330,
      "bro": 4331,
      "citer": 4332,
      "gency": 4333,
      "pan": 4334,
      "rup": 4335,
      "sait": 4336,
      "tence": 4337,
      "taux": 4338,
      "estim": 4339,
      "remp": 4340,
      "entrée": 4341,
      "alter": 4342,
      "along": 4343,
      "offre": 4344,
      "convention": 4345,
      "consolid": 4346,
      "auquel": 4347,
      "provo": 4348,
      "rest": 4349,
      "ducation": 4350,
      "abou": 4351,
      "soi": 4352,
      "explain": 4353,
      "pourtant": 4354,
      "pourront": 4355,
      "covered": 4356,
      "avaient": 4357,
      "gement": 4358,
      "intend": 4359,
      "opti": 4360,
      "venue": 4361,
      "istan": 4362,
      "entreprise": 4363,
      "1995": 4364,
      "consen": 4365,
      "centres": 4366,
      "ouverture": 4367,
      "members": 4368,
      "travaill": 4369,
      "particulière": 4370,
      "taxation": 4371,
      "capac": 4372,
      "actuel": 4373,
      "utile": 4374,
      "priorité": 4375,
      "sort": 4376,
      "handic": 4377,
      "profit": 4378,
      "reality": 4379,
      "troisième": 4380,
      "défini": 4381,
      "élections": 4382,
      "Israël": 4383,
      "reasonable": 4384,
      "flexible": 4385,
      "referred": 4386,
      "reduce": 4387,
      "spécifiques": 4388,
      "recently": 4389,
      "efficient": 4390,
      "recognise": 4391,
      "private": 4392,
      "similar": 4393,
      "Députés": 4394,
      "asylum": 4395,
      "recommandations": 4396,
      "Irlande": 4397,
      "parliamentary": 4398,
      "dépenses": 4399,
      "extérieur": 4400,
      "modèle": 4401,
      "speech": 4402,
      "Transport": 4403,
      "Bri": 4404,
      "Bud": 4405,
      "East": 4406,
      "Mid": 4407,
      "bor": 4408,
      "cés": 4409,
      "dle": 4410,
      "days": 4411,
      "euse": 4412,
      "ffic": 4413,
      "lour": 4414,
      "nant": 4415,
      "ot": 4416,
      "pav": 4417,
      "tack": 4418,
      "vais": 4419,
      "ède": 4420,
      "ène": 4421,
      "écou": 4422,
      "êts": 4423,
      "insi": 4424,
      "tish": 4425,
      "tiveness": 4426,
      "tivité": 4427,
      "err": 4428,
      "deme": 4429,
      "determin": 4430,
      "ories": 4431,
      "itaires": 4432,
      "arrê": 4433,
      "ature": 4434,
      "neigh": 4435,
      "conver": 4436,
      "merely": 4437,
      "aborder": 4438,
      "compren": 4439,
      "quie": 4440,
      "ender": 4441,
      "passe": 4442,
      "perman": 4443,
      "disposition": 4444,
      "obtenir": 4445,
      "compens": 4446,
      "souver": 4447,
      "bilities": 4448,
      "claim": 4449,
      "caused": 4450,
      "billi": 4451,
      "alised": 4452,
      "approfon": 4453,
      "huge": 4454,
      "affairs": 4455,
      "developing": 4456,
      "produce": 4457,
      "produits": 4458,
      "culturelle": 4459,
      "stipu": 4460,
      "charte": 4461,
      "capable": 4462,
      "contribute": 4463,
      "libér": 4464,
      "conclure": 4465,
      "employe": 4466,
      "effets": 4467,
      "succe": 4468,
      "considérer": 4469,
      "garantie": 4470,
      "Koch": 4471,
      "agricultural": 4472,
      "souhaiter": 4473,
      "fondamental": 4474,
      "subjects": 4475,
      "valeur": 4476,
      "flexibility": 4477,
      "équilibre": 4478,
      "multip": 4479,
      "mondiale": 4480,
      "building": 4481,
      "adequate": 4482,
      "industries": 4483,
      "réglementation": 4484,
      "accidents": 4485,
      "Rights": 4486,
      "français": 4487,
      "Palestini": 4488,
      "nucléaire": 4489,
      "obstacles": 4490,
      "réflexion": 4491,
      "notification": 4492,
      "éventu": 4493,
      "comprehensive": 4494,
      "ensuring": 4495,
      "ressortis": 4496,
      "Merci": 4497,
      "circumstances": 4498,
      "neighbour": 4499,
      "Gree": 4500,
      "Nor": 4501,
      "Ou": 4502,
      "SE": 4503,
      "dri": 4504,
      "found": 4505,
      "gations": 4506,
      "ira": 4507,
      "rance": 4508,
      "won": 4509,
      "enable": 4510,
      "remark": 4511,
      "deli": 4512,
      "devenir": 4513,
      "lection": 4514,
      "itant": 4515,
      "rois": 4516,
      "almost": 4517,
      "condem": 4518,
      "conference": 4519,
      "promis": 4520,
      "star": 4521,
      "stance": 4522,
      "staff": 4523,
      "stabilité": 4524,
      "stability": 4525,
      "cities": 4526,
      "rier": 4527,
      "fortement": 4528,
      "paraît": 4529,
      "lutions": 4530,
      "advant": 4531,
      "heures": 4532,
      "appu": 4533,
      "impose": 4534,
      "vier": 4535,
      "vile": 4536,
      "viens": 4537,
      "tradition": 4538,
      "grants": 4539,
      "interne": 4540,
      "cycle": 4541,
      "empê": 4542,
      "entire": 4543,
      "liste": 4544,
      "supported": 4545,
      "works": 4546,
      "useful": 4547,
      "igno": 4548,
      "engen": 4549,
      "Internet": 4550,
      "competitiveness": 4551,
      "brought": 4552,
      "rieure": 4553,
      "simpli": 4554,
      "jouer": 4555,
      "suivi": 4556,
      "establishment": 4557,
      "payer": 4558,
      "agricole": 4559,
      "compétence": 4560,
      "critique": 4561,
      "closed": 4562,
      "modifi": 4563,
      "modifications": 4564,
      "faisons": 4565,
      "approuver": 4566,
      "office": 4567,
      "évidemment": 4568,
      "réduction": 4569,
      "Turquie": 4570,
      "build": 4571,
      "conséquence": 4572,
      "events": 4573,
      "automobiles": 4574,
      "tonnes": 4575,
      "obviously": 4576,
      "engagements": 4577,
      "compétitivité": 4578,
      "mérite": 4579,
      "partenariat": 4580,
      "consequences": 4581,
      "refugees": 4582,
      "forthcoming": 4583,
      "participer": 4584,
      "scoreboard": 4585,
      "consensus": 4586,
      "British": 4587,
      "07": 4588,
      "Asi": 4589,
      "Ma": 4590,
      "Ne": 4591,
      "Ori": 4592,
      "ctr": 4593,
      "fed": 4594,
      "ois": 4595,
      "wait": 4596,
      "yond": 4597,
      "ör": 4598,
      "thinking": 4599,
      "inacceptable": 4600,
      "reli": 4601,
      "reprises": 4602,
      "ourable": 4603,
      "develo": 4604,
      "entam": 4605,
      "itaire": 4606,
      "lating": 4607,
      "alités": 4608,
      "vereign": 4609,
      "rain": 4610,
      "concentre": 4611,
      "auprès": 4612,
      "lesquelles": 4613,
      "pros": 4614,
      "réalisation": 4615,
      "beyond": 4616,
      "parlé": 4617,
      "abor": 4618,
      "sovereign": 4619,
      "cesse": 4620,
      "immédi": 4621,
      "coast": 4622,
      "grounds": 4623,
      "mondial": 4624,
      "léch": 4625,
      "compati": 4626,
      "faits": 4627,
      "chement": 4628,
      "listen": 4629,
      "chances": 4630,
      "anything": 4631,
      "probably": 4632,
      "accepted": 4633,
      "related": 4634,
      "seek": 4635,
      "sign": 4636,
      "contributions": 4637,
      "known": 4638,
      "discussing": 4639,
      "Democr": 4640,
      "histoire": 4641,
      "permettez": 4642,
      "talk": 4643,
      "raisonn": 4644,
      "ships": 4645,
      "labor": 4646,
      "déclaré": 4647,
      "thanks": 4648,
      "missions": 4649,
      "invite": 4650,
      "Schengen": 4651,
      "directly": 4652,
      "scand": 4653,
      "Berger": 4654,
      "augmenter": 4655,
      "elections": 4656,
      "properly": 4657,
      "parlementaires": 4658,
      "purpose": 4659,
      "sugges": 4660,
      "conduite": 4661,
      "Rapport": 4662,
      "steps": 4663,
      "substanti": 4664,
      "victims": 4665,
      "amongst": 4666,
      "Agenda": 4667,
      "sanctions": 4668,
      "ambitious": 4669,
      "expérience": 4670,
      "model": 4671,
      "fellow": 4672,
      "inquiétudes": 4673,
      "remote": 4674,
      "Premièrement": 4675,
      "Deuxièmement": 4676,
      "maximum": 4677,
      "pronon": 4678,
      "démocrates": 4679,
      "Accord": 4680,
      "pavill": 4681,
      "souverain": 4682,
      "Orient": 4683,
      "developed": 4684,
      "),": 4685,
      "Cons": 4686,
      "DE": 4687,
      "FPÖ": 4688,
      "Que": 4689,
      "Su": 4690,
      "Since": 4691,
      "ains": 4692,
      "cées": 4693,
      "eval": 4694,
      "easi": 4695,
      "flu": 4696,
      "half": 4697,
      "ight": 4698,
      "join": 4699,
      "lon": 4700,
      "lant": 4701,
      "ps": 4702,
      "pt": 4703,
      "pire": 4704,
      "udis": 4705,
      "yeux": 4706,
      "zone": 4707,
      "épo": 4708,
      "thus": 4709,
      "insu": 4710,
      "tir": 4711,
      "det": 4712,
      "lecture": 4713,
      "quin": 4714,
      "arrange": 4715,
      "mentaires": 4716,
      "town": 4717,
      "assure": 4718,
      "urally": 4719,
      "audit": 4720,
      "propor": 4721,
      "propri": 4722,
      "ours": 4723,
      "poor": 4724,
      "restru": 4725,
      "parts": 4726,
      "ailed": 4727,
      "acts": 4728,
      "dési": 4729,
      "abst": 4730,
      "appréci": 4731,
      "cover": 4732,
      "pén": 4733,
      "vions": 4734,
      "surve": 4735,
      "ush": 4736,
      "prévoit": 4737,
      "traitement": 4738,
      "finally": 4739,
      "programmation": 4740,
      "transnational": 4741,
      "entrepren": 4742,
      "entièrement": 4743,
      "suppri": 4744,
      "étaires": 4745,
      "borer": 4746,
      "mutu": 4747,
      "discuss": 4748,
      "discussed": 4749,
      "plom": 4750,
      "populations": 4751,
      "effectively": 4752,
      "assumer": 4753,
      "pied": 4754,
      "définir": 4755,
      "fondamentales": 4756,
      "encourager": 4757,
      "limiter": 4758,
      "elected": 4759,
      "confli": 4760,
      "supervision": 4761,
      "eligible": 4762,
      "montrer": 4763,
      "Ministers": 4764,
      "monopo": 4765,
      "People": 4766,
      "tâches": 4767,
      "target": 4768,
      "infrastructure": 4769,
      "vital": 4770,
      "repeat": 4771,
      "fiscal": 4772,
      "flag": 4773,
      "submitted": 4774,
      "bunal": 4775,
      "totalement": 4776,
      "external": 4777,
      "Question": 4778,
      "handicap": 4779,
      "Budget": 4780,
      "prosper": 4781,
      "époque": 4782,
      "Den": 4783,
      "Further": 4784,
      "Gener": 4785,
      "Kar": 4786,
      "Lors": 4787,
      "ail": 4788,
      "equality": 4789,
      "flo": 4790,
      "os": 4791,
      "rise": 4792,
      "sages": 4793,
      "tank": 4794,
      "vres": 4795,
      "wide": 4796,
      "yau": 4797,
      "échange": 4798,
      "insuffis": 4799,
      "depend": 4800,
      "itali": 4801,
      "lait": 4802,
      "confu": 4803,
      "auto": 4804,
      "sea": 4805,
      "procès": 4806,
      "répé": 4807,
      "ational": 4808,
      "parfois": 4809,
      "die": 4810,
      "délais": 4811,
      "admis": 4812,
      "agé": 4813,
      "heart": 4814,
      "cut": 4815,
      "elon": 4816,
      "discours": 4817,
      "dispon": 4818,
      "traite": 4819,
      "intes": 4820,
      "graves": 4821,
      "gure": 4822,
      "Third": 4823,
      "prie": 4824,
      "faites": 4825,
      "accent": 4826,
      "mettez": 4827,
      "consistent": 4828,
      "vative": 4829,
      "menace": 4830,
      "publish": 4831,
      "approval": 4832,
      "affaire": 4833,
      "matic": 4834,
      "alid": 4835,
      "examine": 4836,
      "effecti": 4837,
      "pouv": 4838,
      "relatives": 4839,
      "crédits": 4840,
      "reading": 4841,
      "intentions": 4842,
      "considerable": 4843,
      "unies": 4844,
      "milliards": 4845,
      "natural": 4846,
      "systèmes": 4847,
      "centralisation": 4848,
      "contradiction": 4849,
      "introduce": 4850,
      "déclarations": 4851,
      "improving": 4852,
      "modifier": 4853,
      "assistants": 4854,
      "activity": 4855,
      "occasions": 4856,
      "obligations": 4857,
      "défense": 4858,
      "défendre": 4859,
      "committed": 4860,
      "négociation": 4861,
      "meilleur": 4862,
      "Socialists": 4863,
      "équilib": 4864,
      "spécifique": 4865,
      "Comment": 4866,
      "indépendants": 4867,
      "...": 4868,
      "Danish": 4869,
      "distribution": 4870,
      "wrong": 4871,
      "stratégiques": 4872,
      "suivante": 4873,
      "famili": 4874,
      "choix": 4875,
      "ultrapériphériques": 4876,
      "presidency": 4877,
      "perfect": 4878,
      "According": 4879,
      "):": 4880,
      "22": 4881,
      "Amer": 4882,
      "Ainsi": 4883,
      "Cont": 4884,
      "Est": 4885,
      "Jan": 4886,
      "Lis": 4887,
      "Last": 4888,
      "Ré": 4889,
      "cité": 4890,
      "camp": 4891,
      "dère": 4892,
      "denti": 4893,
      "emer": 4894,
      "fal": 4895,
      "gave": 4896,
      "lits": 4897,
      "nam": 4898,
      "ox": 4899,
      "sse": 4900,
      "senti": 4901,
      "savez": 4902,
      "vées": 4903,
      "valid": 4904,
      "échanges": 4905,
      "rein": 4906,
      "review": 4907,
      "remember": 4908,
      "dez": 4909,
      "oric": 4910,
      "itory": 4911,
      "arch": 4912,
      "neu": 4913,
      "ury": 4914,
      "uring": 4915,
      "veul": 4916,
      "tem": 4917,
      "conten": 4918,
      "conserv": 4919,
      "chaî": 4920,
      "procure": 4921,
      "stu": 4922,
      "pover": 4923,
      "reser": 4924,
      "rieux": 4925,
      "aims": 4926,
      "déc": 4927,
      "déce": 4928,
      "issions": 4929,
      "lowed": 4930,
      "advis": 4931,
      "fif": 4932,
      "endrier": 4933,
      "allons": 4934,
      "ounding": 4935,
      "calendrier": 4936,
      "prepar": 4937,
      "ordon": 4938,
      "sérieux": 4939,
      "worth": 4940,
      "ctiv": 4941,
      "cepti": 4942,
      "présentation": 4943,
      "courts": 4944,
      "speaking": 4945,
      "mener": 4946,
      "crire": 4947,
      "considère": 4948,
      "Ceci": 4949,
      "approve": 4950,
      "huma": 4951,
      "concernent": 4952,
      "fru": 4953,
      "governance": 4954,
      "contrary": 4955,
      "placed": 4956,
      "Prosecutor": 4957,
      "domin": 4958,
      "demandons": 4959,
      "changements": 4960,
      "took": 4961,
      "bruary": 4962,
      "févri": 4963,
      "retur": 4964,
      "catég": 4965,
      "rule": 4966,
      "confidenti": 4967,
      "dealt": 4968,
      "Fran": 4969,
      "refle": 4970,
      "définition": 4971,
      "publiques": 4972,
      "innovation": 4973,
      "addressed": 4974,
      "Although": 4975,
      "envisager": 4976,
      "risks": 4977,
      "happy": 4978,
      "sensible": 4979,
      "Berend": 4980,
      "réduire": 4981,
      "fying": 4982,
      "suggest": 4983,
      "faibles": 4984,
      "operators": 4985,
      "carefully": 4986,
      "avancer": 4987,
      "harmonisation": 4988,
      "habitants": 4989,
      "pauvres": 4990,
      "attendre": 4991,
      "recommendations": 4992,
      "detail": 4993,
      "immediately": 4994,
      "safeguard": 4995,
      "hypo": 4996,
      "sidérurgie": 4997,
      "February": 4998,
      "reçu": 4999,
      "implications": 5000,
      "convergence": 5001,
      "billion": 5002,
      "Denmark": 5003,
      "février": 5004,
      "21": 5005,
      "96": 5006,
      "Fo": 5007,
      "Kouch": 5008,
      "Sur": 5009,
      "Tour": 5010,
      "bad": 5011,
      "evi": 5012,
      "fter": 5013,
      "gle": 5014,
      "gir": 5015,
      "gés": 5016,
      "gender": 5017,
      "haut": 5018,
      "jan": 5019,
      "mous": 5020,
      "paid": 5021,
      "rant": 5022,
      "sants": 5023,
      "tan": 5024,
      "uis": 5025,
      "uine": 5026,
      "youn": 5027,
      "tho": 5028,
      "recours": 5029,
      "relè": 5030,
      "dead": 5031,
      "entendre": 5032,
      "legi": 5033,
      "itage": 5034,
      "arily": 5035,
      "attle": 5036,
      "eté": 5037,
      "cemment": 5038,
      "aspi": 5039,
      "tead": 5040,
      "conseil": 5041,
      "confront": 5042,
      "liance": 5043,
      "destru": 5044,
      "décou": 5045,
      "porteur": 5046,
      "excu": 5047,
      "appoint": 5048,
      "votes": 5049,
      "dol": 5050,
      "gives": 5051,
      "prévention": 5052,
      "préhen": 5053,
      "dispose": 5054,
      "Uni": 5055,
      "ounced": 5056,
      "manner": 5057,
      "obtain": 5058,
      "instead": 5059,
      "interpre": 5060,
      "interdiction": 5061,
      "margin": 5062,
      "lég": 5063,
      "forms": 5064,
      "formu": 5065,
      "visible": 5066,
      "draf": 5067,
      "courrière": 5068,
      "vaise": 5069,
      "waste": 5070,
      "nationals": 5071,
      "proposing": 5072,
      "renforcement": 5073,
      "earlier": 5074,
      "adopting": 5075,
      "factor": 5076,
      "types": 5077,
      "boo": 5078,
      "culturel": 5079,
      "intended": 5080,
      "phob": 5081,
      "Decourrière": 5082,
      "farmers": 5083,
      "rightly": 5084,
      "éligi": 5085,
      "plen": 5086,
      "status": 5087,
      "existent": 5088,
      "Seattle": 5089,
      "juridiques": 5090,
      "territory": 5091,
      "prochain": 5092,
      "pollution": 5093,
      "élevé": 5094,
      "rappelle": 5095,
      "souligné": 5096,
      "avions": 5097,
      "await": 5098,
      "données": 5099,
      "montant": 5100,
      "COD": 5101,
      "flexibilité": 5102,
      "parlementaire": 5103,
      "transi": 5104,
      "Lange": 5105,
      "Moyen": 5106,
      "beginning": 5107,
      "colleague": 5108,
      "radical": 5109,
      "semaines": 5110,
      "respecter": 5111,
      "chiff": 5112,
      "tâche": 5113,
      "peuples": 5114,
      "voix": 5115,
      "réfléch": 5116,
      "réguli": 5117,
      "materi": 5118,
      "Permettez": 5119,
      "burden": 5120,
      "réseaux": 5121,
      "storms": 5122,
      "investissements": 5123,
      "mauvaise": 5124,
      "excessive": 5125,
      "ecological": 5126,
      "xénophob": 5127,
      "Middle": 5128,
      "detailed": 5129,
      "arrangements": 5130,
      "Furthermore": 5131,
      "General": 5132,
      "veulent": 5133,
      "Kouchner": 5134,
      "Tourism": 5135,
      "24": 5136,
      "35": 5137,
      "82": 5138,
      "Alle": 5139,
      "Economi": 5140,
      "Ur": 5141,
      "bly": 5142,
      "gain": 5143,
      "gée": 5144,
      "muni": 5145,
      "opération": 5146,
      "plé": 5147,
      "vance": 5148,
      "wi": 5149,
      "enh": 5150,
      "enor": 5151,
      "enqu": 5152,
      "thé": 5153,
      "reje": 5154,
      "reconnais": 5155,
      "isent": 5156,
      "dehors": 5157,
      "around": 5158,
      "cember": 5159,
      "rac": 5160,
      "lia": 5161,
      "ché": 5162,
      "proto": 5163,
      "proposer": 5164,
      "profonde": 5165,
      "stabil": 5166,
      "stud": 5167,
      "résolu": 5168,
      "réunion": 5169,
      "forget": 5170,
      "parad": 5171,
      "sud": 5172,
      "aie": 5173,
      "lying": 5174,
      "désor": 5175,
      "terrain": 5176,
      "wealth": 5177,
      "abri": 5178,
      "verse": 5179,
      "agissant": 5180,
      "amén": 5181,
      "fig": 5182,
      "pénal": 5183,
      "commissaires": 5184,
      "certi": 5185,
      "Unfortunately": 5186,
      "opposed": 5187,
      "willing": 5188,
      "néanmoins": 5189,
      "insist": 5190,
      "cisme": 5191,
      "cisive": 5192,
      "Italy": 5193,
      "intéress": 5194,
      "socio": 5195,
      "petit": 5196,
      "ideas": 5197,
      "développé": 5198,
      "crédi": 5199,
      "mécan": 5200,
      "statements": 5201,
      "December": 5202,
      "opinions": 5203,
      "fédé": 5204,
      "danois": 5205,
      "criminalité": 5206,
      "appel": 5207,
      "environnementales": 5208,
      "citizen": 5209,
      "instant": 5210,
      "populaire": 5211,
      "landais": 5212,
      "spécial": 5213,
      "requires": 5214,
      "démocratiques": 5215,
      "introduced": 5216,
      "terror": 5217,
      "promoting": 5218,
      "involving": 5219,
      "labour": 5220,
      "critical": 5221,
      "improvement": 5222,
      "clos": 5223,
      "exprimé": 5224,
      "voiture": 5225,
      "attendons": 5226,
      "amber": 5227,
      "contrôler": 5228,
      "législatif": 5229,
      "morning": 5230,
      "Costa": 5231,
      "weeks": 5232,
      "conception": 5233,
      "manifes": 5234,
      "disparities": 5235,
      "enterprises": 5236,
      "autrichi": 5237,
      "Carthy": 5238,
      "centralised": 5239,
      "ambition": 5240,
      "peuple": 5241,
      "infrastructures": 5242,
      "approuvé": 5243,
      "German": 5244,
      "classification": 5245,
      "siècle": 5246,
      "vigil": 5247,
      "McCarthy": 5248,
      "volume": 5249,
      "sincèrement": 5250,
      "employees": 5251,
      "ressortissants": 5252,
      "wonder": 5253,
      "January": 5254,
      "poverty": 5255,
      "décembre": 5256,
      "janvier": 5257,
      "materials": 5258,
      "study": 5259,
      "26": 5260,
      "37": 5261,
      "Jör": 5262,
      "Né": 5263,
      "Sub": 5264,
      "TE": 5265,
      "TAC": 5266,
      "aver": 5267,
      "ahead": 5268,
      "barri": 5269,
      "cli": 5270,
      "eil": 5271,
      "gative": 5272,
      "hor": 5273,
      "kay": 5274,
      "oins": 5275,
      "pil": 5276,
      "paper": 5277,
      "pilo": 5278,
      "rate": 5279,
      "tations": 5280,
      "vas": 5281,
      "ça": 5282,
      "çons": 5283,
      "ón": 5284,
      "envers": 5285,
      "istre": 5286,
      "ering": 5287,
      "oure": 5288,
      "lai": 5289,
      "lari": 5290,
      "laid": 5291,
      "tional": 5292,
      "top": 5293,
      "asking": 5294,
      "sequently": 5295,
      "réussi": 5296,
      "deser": 5297,
      "parlia": 5298,
      "diri": 5299,
      "diplom": 5300,
      "duty": 5301,
      "sum": 5302,
      "dépos": 5303,
      "défavoris": 5304,
      "ters": 5305,
      "weap": 5306,
      "sole": 5307,
      "eding": 5308,
      "lore": 5309,
      "combien": 5310,
      "explan": 5311,
      "mots": 5312,
      "poursuite": 5313,
      "imposer": 5314,
      "endor": 5315,
      "endra": 5316,
      "permit": 5317,
      "prév": 5318,
      "dist": 5319,
      "fine": 5320,
      "finalement": 5321,
      "ghted": 5322,
      "strated": 5323,
      "minutes": 5324,
      "interro": 5325,
      "intervenir": 5326,
      "nière": 5327,
      "preci": 5328,
      "sée": 5329,
      "consiste": 5330,
      "symb": 5331,
      "ferme": 5332,
      "atique": 5333,
      "renation": 5334,
      "subs": 5335,
      "nomin": 5336,
      "developments": 5337,
      "ligne": 5338,
      "seem": 5339,
      "ittees": 5340,
      "mainstream": 5341,
      "véri": 5342,
      "personal": 5343,
      "competitive": 5344,
      "inclure": 5345,
      "includes": 5346,
      "organes": 5347,
      "corrup": 5348,
      "aurons": 5349,
      "garde": 5350,
      "cohérence": 5351,
      "juris": 5352,
      "transparent": 5353,
      "statut": 5354,
      "applies": 5355,
      "besoins": 5356,
      "controls": 5357,
      "Aujourd": 5358,
      "idées": 5359,
      "approuve": 5360,
      "occuper": 5361,
      "genuine": 5362,
      "harm": 5363,
      "COS": 5364,
      "commitments": 5365,
      "évidence": 5366,
      "history": 5367,
      "Rapkay": 5368,
      "confirm": 5369,
      "partenaires": 5370,
      "détaill": 5371,
      "More": 5372,
      "précédente": 5373,
      "CEN": 5374,
      "quota": 5375,
      "competence": 5376,
      "personnellement": 5377,
      "unanimité": 5378,
      "conscience": 5379,
      "Germany": 5380,
      "sensitive": 5381,
      "espérons": 5382,
      "disciplin": 5383,
      "imagin": 5384,
      "Royau": 5385,
      "allocated": 5386,
      "totally": 5387,
      "across": 5388,
      "capacity": 5389,
      "demeure": 5390,
      "sovereignty": 5391,
      "udissements": 5392,
      "restructur": 5393,
      "young": 5394,
      "Economic": 5395,
      "municip": 5396,
      "enormous": 5397,
      "Jörg": 5398,
      "parliaments": 5399,
      "Royaume": 5400,
      "By": 5401,
      "Dès": 5402,
      "Gre": 5403,
      "Russi": 5404,
      "Selon": 5405,
      "Tri": 5406,
      "bar": 5407,
      "equ": 5408,
      "emark": 5409,
      "frais": 5410,
      "ice": 5411,
      "lence": 5412,
      "lance": 5413,
      "ples": 5414,
      "ping": 5415,
      "send": 5416,
      "wit": 5417,
      "wing": 5418,
      "wanted": 5419,
      "èrent": 5420,
      "enci": 5421,
      "rev": 5422,
      "reject": 5423,
      "ismes": 5424,
      "erons": 5425,
      "leg": 5426,
      "orateurs": 5427,
      "qués": 5428,
      "iting": 5429,
      "itations": 5430,
      "conde": 5431,
      "illu": 5432,
      "ched": 5433,
      "sts": 5434,
      "rédi": 5435,
      "réser": 5436,
      "réparti": 5437,
      "réelle": 5438,
      "récemment": 5439,
      "uns": 5440,
      "civile": 5441,
      "forced": 5442,
      "bed": 5443,
      "délai": 5444,
      "magne": 5445,
      "los": 5446,
      "loir": 5447,
      "agner": 5448,
      "pourraient": 5449,
      "heav": 5450,
      "appreci": 5451,
      "voire": 5452,
      "tées": 5453,
      "prou": 5454,
      "committees": 5455,
      "préa": 5456,
      "polies": 5457,
      "travers": 5458,
      "auxquels": 5459,
      "intends": 5460,
      "shown": 5461,
      "rapid": 5462,
      "venons": 5463,
      "internationaux": 5464,
      "tedly": 5465,
      "vessels": 5466,
      "souff": 5467,
      "big": 5468,
      "devront": 5469,
      "Itali": 5470,
      "appla": 5471,
      "chez": 5472,
      "foreign": 5473,
      "triment": 5474,
      "otherwise": 5475,
      "fulfil": 5476,
      "matin": 5477,
      "product": 5478,
      "engager": 5479,
      "demands": 5480,
      "rapporteurs": 5481,
      "greatest": 5482,
      "Why": 5483,
      "aurions": 5484,
      "truly": 5485,
      "responsibilities": 5486,
      "sets": 5487,
      "providing": 5488,
      "permettra": 5489,
      "Chamber": 5490,
      "heureux": 5491,
      "suffit": 5492,
      "dealing": 5493,
      "appropriations": 5494,
      "circonst": 5495,
      "malgré": 5496,
      "reduction": 5497,
      "Socialist": 5498,
      "combating": 5499,
      "annuel": 5500,
      "conduct": 5501,
      "réaliser": 5502,
      "guarantees": 5503,
      "seuls": 5504,
      "association": 5505,
      "receive": 5506,
      "remarque": 5507,
      "remarques": 5508,
      "Syrie": 5509,
      "convin": 5510,
      "commercial": 5511,
      "consumers": 5512,
      "decide": 5513,
      "mandat": 5514,
      "Danemark": 5515,
      "monopolies": 5516,
      "ambitieux": 5517,
      "challenges": 5518,
      "Député": 5519,
      "pauvre": 5520,
      "accordé": 5521,
      "oubli": 5522,
      "Syria": 5523,
      "dynam": 5524,
      "ennium": 5525,
      "extraordin": 5526,
      "exécution": 5527,
      "delegation": 5528,
      "nonetheless": 5529,
      "concentrate": 5530,
      "matériaux": 5531,
      "délégation": 5532,
      "permanent": 5533,
      "empêcher": 5534,
      "ctron": 5535,
      "concentrer": 5536,
      "conflict": 5537,
      "floor": 5538,
      "procureur": 5539,
      "legitim": 5540,
      "plenary": 5541,
      "désormais": 5542,
      "weapons": 5543,
      "Italian": 5544,
      "45": 5545,
      "After": 5546,
      "DA": 5547,
      "Fre": 5548,
      "IS": 5549,
      "Sou": 5550,
      "Tod": 5551,
      "Val": 5552,
      "Vitor": 5553,
      "Wor": 5554,
      "adi": 5555,
      "cate": 5556,
      "ket": 5557,
      "ption": 5558,
      "sound": 5559,
      "yons": 5560,
      "âts": 5561,
      "ître": 5562,
      "ende": 5563,
      "encies": 5564,
      "oured": 5565,
      "armes": 5566,
      "alie": 5567,
      "sif": 5568,
      "tolé": 5569,
      "toler": 5570,
      "urani": 5571,
      "teen": 5572,
      "contains": 5573,
      "autés": 5574,
      "septe": 5575,
      "mechan": 5576,
      "récu": 5577,
      "unable": 5578,
      "ommet": 5579,
      "desig": 5580,
      "rir": 5581,
      "bel": 5582,
      "supr": 5583,
      "aimer": 5584,
      "terri": 5585,
      "loss": 5586,
      "compréhen": 5587,
      "figure": 5588,
      "outcome": 5589,
      "prêts": 5590,
      "pertin": 5591,
      "avé": 5592,
      "politici": 5593,
      "mination": 5594,
      "interpré": 5595,
      "internes": 5596,
      "monn": 5597,
      "programming": 5598,
      "lled": 5599,
      "press": 5600,
      "mid": 5601,
      "specula": 5602,
      "ouvert": 5603,
      "issons": 5604,
      "touche": 5605,
      "atif": 5606,
      "intéres": 5607,
      "sometimes": 5608,
      "socialiste": 5609,
      "news": 5610,
      "économies": 5611,
      "affai": 5612,
      "matières": 5613,
      "puisqu": 5614,
      "supporting": 5615,
      "contribut": 5616,
      "taxes": 5617,
      "economies": 5618,
      "considerably": 5619,
      "Now": 5620,
      "philo": 5621,
      "uniform": 5622,
      "niveaux": 5623,
      "essentiels": 5624,
      "Only": 5625,
      "putting": 5626,
      "exemption": 5627,
      "durée": 5628,
      "regular": 5629,
      "constructive": 5630,
      "Septe": 5631,
      "Chin": 5632,
      "necessarily": 5633,
      "achieving": 5634,
      "involvement": 5635,
      "compétent": 5636,
      "critiques": 5637,
      "improved": 5638,
      "présidents": 5639,
      "representative": 5640,
      "astern": 5641,
      "maintenir": 5642,
      "terminer": 5643,
      "recogni": 5644,
      "affect": 5645,
      "Golan": 5646,
      "Rapporteur": 5647,
      "MEP": 5648,
      "dangereux": 5649,
      "Organ": 5650,
      "sérieusement": 5651,
      "Amendments": 5652,
      "demonstrate": 5653,
      "urbaines": 5654,
      "emphasis": 5655,
      "perspectives": 5656,
      "soutenons": 5657,
      "Directive": 5658,
      "stratégique": 5659,
      "elements": 5660,
      "articles": 5661,
      "Applaudissements": 5662,
      "accession": 5663,
      "sympathy": 5664,
      "Charter": 5665,
      "xenophobia": 5666,
      "succeed": 5667,
      "souhaiterais": 5668,
      "federal": 5669,
      "souveraineté": 5670,
      "proportion": 5671,
      "effectiveness": 5672,
      "Contro": 5673,
      "éligibles": 5674,
      "Allemagne": 5675,
      "mainstreaming": 5676,
      "Today": 5677,
      "Vitorino": 5678,
      "uranium": 5679,
      "septembre": 5680,
      "philoso": 5681,
      "September": 5682,
      "recognition": 5683,
      "Après": 5684,
      "Bas": 5685,
      "Can": 5686,
      "Cent": 5687,
      "Plu": 5688,
      "PME": 5689,
      "She": 5690,
      "Sten": 5691,
      "SME": 5692,
      "VP": 5693,
      "Van": 5694,
      "Yet": 5695,
      "bation": 5696,
      "hesion": 5697,
      "iel": 5698,
      "image": 5699,
      "rales": 5700,
      "source": 5701,
      "tz": 5702,
      "tab": 5703,
      "vite": 5704,
      "zel": 5705,
      "ÖVP": 5706,
      "encontre": 5707,
      "enrich": 5708,
      "reques": 5709,
      "reprise": 5710,
      "isra": 5711,
      "roles": 5712,
      "uri": 5713,
      "concré": 5714,
      "liés": 5715,
      "sex": 5716,
      "partout": 5717,
      "parfaite": 5718,
      "duquel": 5719,
      "acté": 5720,
      "portant": 5721,
      "expe": 5722,
      "advice": 5723,
      "tait": 5724,
      "vienne": 5725,
      "télé": 5726,
      "prépare": 5727,
      "managed": 5728,
      "venant": 5729,
      "tener": 5730,
      "thern": 5731,
      "lés": 5732,
      "Instance": 5733,
      "presque": 5734,
      "soumis": 5735,
      "sés": 5736,
      "Legal": 5737,
      "caracté": 5738,
      "syn": 5739,
      "century": 5740,
      "atifs": 5741,
      "rencontre": 5742,
      "early": 5743,
      "2002": 5744,
      "principalement": 5745,
      "relatif": 5746,
      "signed": 5747,
      "fund": 5748,
      "amended": 5749,
      "Internal": 5750,
      "contribué": 5751,
      "frag": 5752,
      "attentive": 5753,
      "employed": 5754,
      "resolutions": 5755,
      "différences": 5756,
      "permettent": 5757,
      "communications": 5758,
      "suivant": 5759,
      "talks": 5760,
      "budgets": 5761,
      "spent": 5762,
      "involve": 5763,
      "agricul": 5764,
      "intérieures": 5765,
      "Alban": 5766,
      "Altener": 5767,
      "follows": 5768,
      "défis": 5769,
      "Israeli": 5770,
      "heritage": 5771,
      "montré": 5772,
      "lutter": 5773,
      "Minutes": 5774,
      "reducing": 5775,
      "relationshi": 5776,
      "relever": 5777,
      "Cohesion": 5778,
      "historic": 5779,
      "maritimes": 5780,
      "sociétés": 5781,
      "faible": 5782,
      "vérit": 5783,
      "territoires": 5784,
      "exploitation": 5785,
      "Monetary": 5786,
      "demonstrated": 5787,
      "facilit": 5788,
      "minute": 5789,
      "signaler": 5790,
      "judge": 5791,
      "diverses": 5792,
      "scheme": 5793,
      "diversity": 5794,
      "inspection": 5795,
      "defend": 5796,
      "transfrontalière": 5797,
      "exactly": 5798,
      "clarté": 5799,
      "correspond": 5800,
      "Applause": 5801,
      "physi": 5802,
      "dégâts": 5803,
      "majeure": 5804,
      "expliquer": 5805,
      "historique": 5806,
      "dossier": 5807,
      "entamer": 5808,
      "confusion": 5809,
      "Thirdly": 5810,
      "dollar": 5811,
      "plénière": 5812,
      "paradox": 5813,
      "aménagement": 5814,
      "crédibilité": 5815,
      "symbo": 5816,
      "Tribunal": 5817,
      "répartition": 5818,
      "circonstances": 5819,
      "pauvreté": 5820,
      "Freedom": 5821,
      "supran": 5822,
      "affaib": 5823,
      "Stenzel": 5824,
      "requested": 5825,
      "100": 5826,
      "27": 5827,
      "94": 5828,
      "95": 5829,
      "Ave": 5830,
      "Bro": 5831,
      "Don": 5832,
      "King": 5833,
      "May": 5834,
      "PI": 5835,
      "Str": 5836,
      "Trois": 5837,
      "VE": 5838,
      "cam": 5839,
      "cale": 5840,
      "cteur": 5841,
      "ement": 5842,
      "eau": 5843,
      "lou": 5844,
      "odi": 5845,
      "pet": 5846,
      "ron": 5847,
      "ring": 5848,
      "tard": 5849,
      "wo": 5850,
      "ene": 5851,
      "enlar": 5852,
      "thèmes": 5853,
      "insur": 5854,
      "inég": 5855,
      "reconnaissance": 5856,
      "isch": 5857,
      "issent": 5858,
      "oura": 5859,
      "oral": 5860,
      "alone": 5861,
      "urgency": 5862,
      "constate": 5863,
      "conventions": 5864,
      "liers": 5865,
      "chap": 5866,
      "chets": 5867,
      "proté": 5868,
      "stade": 5869,
      "déchets": 5870,
      "soir": 5871,
      "compos": 5872,
      "verbal": 5873,
      "moindre": 5874,
      "ared": 5875,
      "Européen": 5876,
      "Eurojust": 5877,
      "codecision": 5878,
      "codécision": 5879,
      "pass": 5880,
      "passed": 5881,
      "prouve": 5882,
      "enceinte": 5883,
      "présence": 5884,
      "option": 5885,
      "guerre": 5886,
      "goal": 5887,
      "marque": 5888,
      "lées": 5889,
      "presse": 5890,
      "concernées": 5891,
      "privil": 5892,
      "devait": 5893,
      "devrons": 5894,
      "1993": 5895,
      "accro": 5896,
      "communities": 5897,
      "donateurs": 5898,
      "syner": 5899,
      "langu": 5900,
      "financing": 5901,
      "atic": 5902,
      "petition": 5903,
      "bases": 5904,
      "iterran": 5905,
      "overcome": 5906,
      "cooper": 5907,
      "mainly": 5908,
      "occur": 5909,
      "intensi": 5910,
      "personally": 5911,
      "bateaux": 5912,
      "knows": 5913,
      "Not": 5914,
      "conclude": 5915,
      "protect": 5916,
      "logiques": 5917,
      "facing": 5918,
      "régionaux": 5919,
      "Pourquoi": 5920,
      "contraign": 5921,
      "efficaces": 5922,
      "countryside": 5923,
      "fourni": 5924,
      "highly": 5925,
      "highlight": 5926,
      "criticis": 5927,
      "criticism": 5928,
      "differences": 5929,
      "souligne": 5930,
      "examination": 5931,
      "innovative": 5932,
      "occupé": 5933,
      "limite": 5934,
      "globale": 5935,
      "étude": 5936,
      "laisser": 5937,
      "règlements": 5938,
      "understanding": 5939,
      "meilleures": 5940,
      "honourable": 5941,
      "Objet": 5942,
      "réalisé": 5943,
      "Barak": 5944,
      "indépendance": 5945,
      "immigrants": 5946,
      "minorités": 5947,
      "substances": 5948,
      "Market": 5949,
      "bringing": 5950,
      "violation": 5951,
      "origine": 5952,
      "growing": 5953,
      "recognised": 5954,
      "bourg": 5955,
      "ambigu": 5956,
      "distributed": 5957,
      "embar": 5958,
      "nevertheless": 5959,
      "emphasise": 5960,
      "expériences": 5961,
      "octroi": 5962,
      "bénéficier": 5963,
      "qualifi": 5964,
      "functioning": 5965,
      "oublier": 5966,
      "original": 5967,
      "Certains": 5968,
      "resolve": 5969,
      "reconnaître": 5970,
      "ethnic": 5971,
      "énorme": 5972,
      "supplémentaire": 5973,
      "entraîner": 5974,
      "gros": 5975,
      "événements": 5976,
      "SAVE": 5977,
      "britannique": 5978,
      "altern": 5979,
      "consolidation": 5980,
      "Greece": 5981,
      "immédiate": 5982,
      "Democrats": 5983,
      "raisonnable": 5984,
      "perfectly": 5985,
      "return": 5986,
      "xénophobie": 5987,
      "certific": 5988,
      "Néanmoins": 5989,
      "Subject": 5990,
      "défavorisées": 5991,
      "legally": 5992,
      "designed": 5993,
      "Organisation": 5994,
      "israéli": 5995,
      "Brok": 5996,
      "Donc": 5997,
      "Kingdom": 5998,
      "Code": 5999,
      "Even": 6000,
      "Gu": 6001,
      "Having": 6002,
      "Ky": 6003,
      "NS": 6004,
      "Pers": 6005,
      "Pays": 6006,
      "PSE": 6007,
      "Sud": 6008,
      "US": 6009,
      "bom": 6010,
      "easy": 6011,
      "iques": 6012,
      "mè": 6013,
      "mouve": 6014,
      "naz": 6015,
      "pack": 6016,
      "rou": 6017,
      "rité": 6018,
      "tres": 6019,
      "eness": 6020,
      "thème": 6021,
      "informed": 6022,
      "reprendre": 6023,
      "revision": 6024,
      "revient": 6025,
      "tise": 6026,
      "ancho": 6027,
      "ery": 6028,
      "deg": 6029,
      "depart": 6030,
      "deca": 6031,
      "negative": 6032,
      "convi": 6033,
      "connu": 6034,
      "contient": 6035,
      "aurer": 6036,
      "separ": 6037,
      "section": 6038,
      "ild": 6039,
      "illes": 6040,
      "prospé": 6041,
      "peop": 6042,
      "stati": 6043,
      "ciale": 6044,
      "dix": 6045,
      "ditions": 6046,
      "suit": 6047,
      "dénon": 6048,
      "male": 6049,
      "exhau": 6050,
      "mobil": 6051,
      "ell": 6052,
      "persu": 6053,
      "aval": 6054,
      "prépar": 6055,
      "distor": 6056,
      "puissions": 6057,
      "allou": 6058,
      "insiste": 6059,
      "rappro": 6060,
      "tenue": 6061,
      "monetary": 6062,
      "mars": 6063,
      "prece": 6064,
      "Thurs": 6065,
      "thereby": 6066,
      "complais": 6067,
      "itely": 6068,
      "preser": 6069,
      "pressure": 6070,
      "concernés": 6071,
      "Italie": 6072,
      "approxim": 6073,
      "approbation": 6074,
      "illed": 6075,
      "matiques": 6076,
      "probablement": 6077,
      "presentation": 6078,
      "produire": 6079,
      "produced": 6080,
      "justified": 6081,
      "géographi": 6082,
      "occurr": 6083,
      "International": 6084,
      "suspen": 6085,
      "risti": 6086,
      "util": 6087,
      "planned": 6088,
      "akis": 6089,
      "indicat": 6090,
      "coher": 6091,
      "mentionné": 6092,
      "plant": 6093,
      "administratives": 6094,
      "instal": 6095,
      "landaise": 6096,
      "spécula": 6097,
      "expression": 6098,
      "souha": 6099,
      "organised": 6100,
      "interesting": 6101,
      "représentent": 6102,
      "collective": 6103,
      "lobby": 6104,
      "recycle": 6105,
      "Fundamental": 6106,
      "generally": 6107,
      "letter": 6108,
      "lettre": 6109,
      "locale": 6110,
      "stratégies": 6111,
      "continuing": 6112,
      "énergé": 6113,
      "favoriser": 6114,
      "manufact": 6115,
      "scientists": 6116,
      "environmentally": 6117,
      "networks": 6118,
      "honor": 6119,
      "financed": 6120,
      "parlements": 6121,
      "combattre": 6122,
      "additional": 6123,
      "conflit": 6124,
      "meaning": 6125,
      "technology": 6126,
      "associations": 6127,
      "applying": 6128,
      "Here": 6129,
      "minority": 6130,
      "substance": 6131,
      "March": 6132,
      "urbaine": 6133,
      "exceptions": 6134,
      "effectué": 6135,
      "friend": 6136,
      "implique": 6137,
      "faciliter": 6138,
      "balanced": 6139,
      "Director": 6140,
      "schemes": 6141,
      "énaire": 6142,
      "weaken": 6143,
      "material": 6144,
      "investment": 6145,
      "discipline": 6146,
      "declared": 6147,
      "rigoure": 6148,
      "learn": 6149,
      "préoccupations": 6150,
      "élaborer": 6151,
      "complète": 6152,
      "spending": 6153,
      "étrang": 6154,
      "latter": 6155,
      "attentes": 6156,
      "treatment": 6157,
      "credibility": 6158,
      "technologies": 6159,
      "Rules": 6160,
      "libéraux": 6161,
      "jeudi": 6162,
      "estimons": 6163,
      "pavillon": 6164,
      "Constitu": 6165,
      "prosperity": 6166,
      "published": 6167,
      "sentiment": 6168,
      "décenni": 6169,
      "Urban": 6170,
      "renationalisation": 6171,
      "monnaie": 6172,
      "Control": 6173,
      "Central": 6174,
      "SMEs": 6175,
      "campai": 6176,
      "peoples": 6177,
      "statisti": 6178,
      "Thursday": 6179,
      "34": 6180,
      "67": 6181,
      "85": 6182,
      "BB": 6183,
      "Cor": 6184,
      "Dut": 6185,
      "Fisch": 6186,
      "Gra": 6187,
      "Grè": 6188,
      "HA": 6189,
      "Non": 6190,
      "Wur": 6191,
      "bou": 6192,
      "blo": 6193,
      "bound": 6194,
      "equi": 6195,
      "education": 6196,
      "fasse": 6197,
      "gla": 6198,
      "grer": 6199,
      "hé": 6200,
      "hori": 6201,
      "kop": 6202,
      "ners": 6203,
      "nul": 6204,
      "pag": 6205,
      "patri": 6206,
      "ssel": 6207,
      "vaut": 6208,
      "èvement": 6209,
      "écar": 6210,
      "écurité": 6211,
      "üssel": 6212,
      "enf": 6213,
      "inen": 6214,
      "inci": 6215,
      "incident": 6216,
      "remains": 6217,
      "tidi": 6218,
      "demi": 6219,
      "leave": 6220,
      "quée": 6221,
      "quées": 6222,
      "laun": 6223,
      "laté": 6224,
      "lates": 6225,
      "ares": 6226,
      "attirer": 6227,
      "etter": 6228,
      "cedure": 6229,
      "asbourg": 6230,
      "near": 6231,
      "vez": 6232,
      "racisme": 6233,
      "conce": 6234,
      "concitoyens": 6235,
      "chair": 6236,
      "meth": 6237,
      "résolutions": 6238,
      "réserve": 6239,
      "cilement": 6240,
      "nove": 6241,
      "acter": 6242,
      "déro": 6243,
      "départ": 6244,
      "déliv": 6245,
      "lois": 6246,
      "lost": 6247,
      "added": 6248,
      "advance": 6249,
      "agno": 6250,
      "amounts": 6251,
      "vocation": 6252,
      "impu": 6253,
      "témo": 6254,
      "withdraw": 6255,
      "illers": 6256,
      "derrière": 6257,
      "geographi": 6258,
      "prévu": 6259,
      "seraient": 6260,
      "traités": 6261,
      "auxquelles": 6262,
      "opposition": 6263,
      "grate": 6264,
      "interven": 6265,
      "compon": 6266,
      "soumettre": 6267,
      "midi": 6268,
      "registre": 6269,
      "worse": 6270,
      "bio": 6271,
      "structur": 6272,
      "Conciliation": 6273,
      "Leinen": 6274,
      "accr": 6275,
      "communs": 6276,
      "donors": 6277,
      "présentent": 6278,
      "initial": 6279,
      "crimes": 6280,
      "vouloir": 6281,
      "lancer": 6282,
      "supporter": 6283,
      "étro": 6284,
      "Environ": 6285,
      "subventions": 6286,
      "ignor": 6287,
      "stead": 6288,
      "principal": 6289,
      "gouvern": 6290,
      "factory": 6291,
      "governing": 6292,
      "ished": 6293,
      "relates": 6294,
      "cussions": 6295,
      "Procedure": 6296,
      "tempêtes": 6297,
      "character": 6298,
      "actual": 6299,
      "volun": 6300,
      "textes": 6301,
      "commissions": 6302,
      "thorough": 6303,
      "applicant": 6304,
      "essentielle": 6305,
      "norm": 6306,
      "facteur": 6307,
      "espagno": 6308,
      "naturally": 6309,
      "connaît": 6310,
      "connaître": 6311,
      "evening": 6312,
      "trying": 6313,
      "systé": 6314,
      "Regu": 6315,
      "periph": 6316,
      "construire": 6317,
      "rug": 6318,
      "élargir": 6319,
      "organiser": 6320,
      "budgetary": 6321,
      "excluded": 6322,
      "collectiv": 6323,
      "paying": 6324,
      "Audit": 6325,
      "affor": 6326,
      "amélior": 6327,
      "limites": 6328,
      "Schüssel": 6329,
      "helping": 6330,
      "grés": 6331,
      "discriminations": 6332,
      "arriver": 6333,
      "sixth": 6334,
      "sixième": 6335,
      "attends": 6336,
      "Brit": 6337,
      "Berlin": 6338,
      "exiger": 6339,
      "confirmer": 6340,
      "secure": 6341,
      "regrette": 6342,
      "expectations": 6343,
      "bureaucracy": 6344,
      "urbain": 6345,
      "effectuer": 6346,
      "happened": 6347,
      "gauche": 6348,
      "constant": 6349,
      "adaptation": 6350,
      "professionnelle": 6351,
      "ancienne": 6352,
      "concrete": 6353,
      "diversité": 6354,
      "française": 6355,
      "viendra": 6356,
      "inquiétude": 6357,
      "Beh": 6358,
      "resolved": 6359,
      "comprends": 6360,
      "élas": 6361,
      "Does": 6362,
      "millennium": 6363,
      "CAP": 6364,
      "compatible": 6365,
      "evaluation": 6366,
      "easier": 6367,
      "disponi": 6368,
      "pouvait": 6369,
      "chaîne": 6370,
      "advisers": 6371,
      "réfléchir": 6372,
      "corruption": 6373,
      "préalable": 6374,
      "convinced": 6375,
      "speculative": 6376,
      "parfaitement": 6377,
      "agriculteurs": 6378,
      "Avec": 6379,
      "Strasbourg": 6380,
      "immédiatement": 6381,
      "complaisance": 6382,
      "Dutch": 6383,
      "Fischler": 6384,
      "Grèce": 6385,
      "Wurtz": 6386,
      "horiz": 6387,
      "23": 6388,
      "AT": 6389,
      "Ban": 6390,
      "Bank": 6391,
      "DP": 6392,
      "ED": 6393,
      "Employment": 6394,
      "FR": 6395,
      "Ini": 6396,
      "Ju": 6397,
      "Os": 6398,
      "PAC": 6399,
      "PHA": 6400,
      "UN": 6401,
      "Whi": 6402,
      "bloc": 6403,
      "beral": 6404,
      "caux": 6405,
      "cite": 6406,
      "came": 6407,
      "dac": 6408,
      "fré": 6409,
      "gées": 6410,
      "hun": 6411,
      "hence": 6412,
      "io": 6413,
      "ix": 6414,
      "ience": 6415,
      "says": 6416,
      "tled": 6417,
      "vy": 6418,
      "vast": 6419,
      "wants": 6420,
      "écrit": 6421,
      "ined": 6422,
      "reaction": 6423,
      "tiative": 6424,
      "isé": 6425,
      "isant": 6426,
      "isms": 6427,
      "orous": 6428,
      "quar": 6429,
      "iture": 6430,
      "arbit": 6431,
      "sides": 6432,
      "tele": 6433,
      "racism": 6434,
      "liens": 6435,
      "seven": 6436,
      "seconde": 6437,
      "proved": 6438,
      "récent": 6439,
      "belong": 6440,
      "parvenus": 6441,
      "noon": 6442,
      "déposé": 6443,
      "compar": 6444,
      "vertu": 6445,
      "exac": 6446,
      "admit": 6447,
      "ague": 6448,
      "agisse": 6449,
      "Eurodac": 6450,
      "atever": 6451,
      "percussions": 6452,
      "prévoir": 6453,
      "prétend": 6454,
      "préparation": 6455,
      "disons": 6456,
      "disadvant": 6457,
      "oppose": 6458,
      "finding": 6459,
      "auton": 6460,
      "hasard": 6461,
      "fol": 6462,
      "mine": 6463,
      "salari": 6464,
      "prefer": 6465,
      "compli": 6466,
      "compter": 6467,
      "complement": 6468,
      "company": 6469,
      "privé": 6470,
      "milieu": 6471,
      "worst": 6472,
      "acting": 6473,
      "consist": 6474,
      "speculation": 6475,
      "menées": 6476,
      "crises": 6477,
      "tribun": 6478,
      "fera": 6479,
      "proposons": 6480,
      "proposée": 6481,
      "suppose": 6482,
      "iez": 6483,
      "intégrer": 6484,
      "counter": 6485,
      "issued": 6486,
      "ideo": 6487,
      "adopte": 6488,
      "bois": 6489,
      "producteurs": 6490,
      "pouvant": 6491,
      "valor": 6492,
      "yourself": 6493,
      "demandes": 6494,
      "dites": 6495,
      "milliers": 6496,
      "tool": 6497,
      "normal": 6498,
      "autorisation": 6499,
      "férer": 6500,
      "environnemental": 6501,
      "joue": 6502,
      "administrations": 6503,
      "laws": 6504,
      "générales": 6505,
      "controver": 6506,
      "garanties": 6507,
      "introduire": 6508,
      "strategies": 6509,
      "secondly": 6510,
      "realise": 6511,
      "faced": 6512,
      "Any": 6513,
      "offrir": 6514,
      "exprime": 6515,
      "refuse": 6516,
      "évolu": 6517,
      "évoqué": 6518,
      "encouraging": 6519,
      "occupe": 6520,
      "exercise": 6521,
      "recovery": 6522,
      "défend": 6523,
      "affec": 6524,
      "opening": 6525,
      "leading": 6526,
      "efficacement": 6527,
      "stocks": 6528,
      "defined": 6529,
      "accompli": 6530,
      "Competition": 6531,
      "built": 6532,
      "drawing": 6533,
      "indépendant": 6534,
      "minorities": 6535,
      "évaluer": 6536,
      "détail": 6537,
      "remarquer": 6538,
      "shared": 6539,
      "quotidi": 6540,
      "constructeur": 6541,
      "disposons": 6542,
      "habitant": 6543,
      "mandate": 6544,
      "allemand": 6545,
      "trouvons": 6546,
      "candidate": 6547,
      "vrir": 6548,
      "complexe": 6549,
      "restricted": 6550,
      "explicit": 6551,
      "closely": 6552,
      "qualified": 6553,
      "ancien": 6554,
      "concrets": 6555,
      "inspections": 6556,
      "bureaucratie": 6557,
      "régular": 6558,
      "defence": 6559,
      "Perhaps": 6560,
      "soulevé": 6561,
      "extending": 6562,
      "convaincu": 6563,
      "préoccupation": 6564,
      "links": 6565,
      "convenience": 6566,
      "sympathie": 6567,
      "millénaire": 6568,
      "announced": 6569,
      "territori": 6570,
      "Afrique": 6571,
      "forestry": 6572,
      "briefly": 6573,
      "définitive": 6574,
      "tackle": 6575,
      "Palestinian": 6576,
      "prononcer": 6577,
      "flux": 6578,
      "pénale": 6579,
      "surveill": 6580,
      "supprimer": 6581,
      "Budgetary": 6582,
      "répéter": 6583,
      "admissible": 6584,
      "familiar": 6585,
      "catégories": 6586,
      "excuse": 6587,
      "mécanismes": 6588,
      "Moreover": 6589,
      "réserves": 6590,
      "mechanisms": 6591,
      "aimerais": 6592,
      "relationship": 6593,
      "Européens": 6594,
      "Person": 6595,
      "degree": 6596,
      "prospérité": 6597,
      "installations": 6598,
      "souhaité": 6599,
      "énergétique": 6600,
      "geographical": 6601,
      "grateful": 6602,
      "collectivités": 6603,
      "Initiative": 6604,
      "PHARE": 6605,
      "44": 6606,
      "48": 6607,
      "60": 6608,
      "75": 6609,
      "Aher": 6610,
      "Bret": 6611,
      "Bol": 6612,
      "CNS": 6613,
      "Dim": 6614,
      "Dub": 6615,
      "Dala": 6616,
      "Ev": 6617,
      "From": 6618,
      "GDP": 6619,
      "Lux": 6620,
      "Moura": 6621,
      "NG": 6622,
      "Pri": 6623,
      "Res": 6624,
      "Roth": 6625,
      "Reding": 6626,
      "Sw": 6627,
      "Span": 6628,
      "TA": 6629,
      "VIII": 6630,
      "XX": 6631,
      "ax": 6632,
      "ake": 6633,
      "apart": 6634,
      "clim": 6635,
      "dat": 6636,
      "gap": 6637,
      "hul": 6638,
      "ids": 6639,
      "irait": 6640,
      "nomm": 6641,
      "palest": 6642,
      "round": 6643,
      "scr": 6644,
      "somme": 6645,
      "ville": 6646,
      "équ": 6647,
      "ened": 6648,
      "thous": 6649,
      "retro": 6650,
      "revenir": 6651,
      "revenus": 6652,
      "record": 6653,
      "tien": 6654,
      "ticles": 6655,
      "anx": 6656,
      "ancial": 6657,
      "anchois": 6658,
      "island": 6659,
      "ert": 6660,
      "oulos": 6661,
      "decisive": 6662,
      "orateur": 6663,
      "itent": 6664,
      "ital": 6665,
      "itra": 6666,
      "lap": 6667,
      "lage": 6668,
      "ator": 6669,
      "attra": 6670,
      "atures": 6671,
      "sir": 6672,
      "topi": 6673,
      "vember": 6674,
      "tein": 6675,
      "rables": 6676,
      "lié": 6677,
      "liées": 6678,
      "iling": 6679,
      "child": 6680,
      "peine": 6681,
      "stable": 6682,
      "stressed": 6683,
      "potis": 6684,
      "réun": 6685,
      "réels": 6686,
      "beg": 6687,
      "dirais": 6688,
      "dus": 6689,
      "démar": 6690,
      "décentralis": 6691,
      "terre": 6692,
      "compu": 6693,
      "appointed": 6694,
      "Europeans": 6695,
      "vivent": 6696,
      "outes": 6697,
      "prenne": 6698,
      "perts": 6699,
      "certes": 6700,
      "series": 6701,
      "distin": 6702,
      "dismant": 6703,
      "poss": 6704,
      "manag": 6705,
      "obod": 6706,
      "partis": 6707,
      "interregional": 6708,
      "tenant": 6709,
      "tenus": 6710,
      "ultim": 6711,
      "goals": 6712,
      "ller": 6713,
      "comply": 6714,
      "contenter": 6715,
      "price": 6716,
      "micycle": 6717,
      "register": 6718,
      "velopment": 6719,
      "Consequently": 6720,
      "1992": 6721,
      "accounts": 6722,
      "partners": 6723,
      "checks": 6724,
      "présentée": 6725,
      "présentées": 6726,
      "mergers": 6727,
      "menac": 6728,
      "proposes": 6729,
      "ift": 6730,
      "aliser": 6731,
      "changer": 6732,
      "Eng": 6733,
      "break": 6734,
      "undertaken": 6735,
      "undertaking": 6736,
      "petits": 6737,
      "principaux": 6738,
      "pendence": 6739,
      "mément": 6740,
      "contribuables": 6741,
      "politically": 6742,
      "débattre": 6743,
      "constitute": 6744,
      "texts": 6745,
      "November": 6746,
      "standing": 6747,
      "premiers": 6748,
      "garder": 6749,
      "Development": 6750,
      "indiquer": 6751,
      "périodi": 6752,
      "environnementale": 6753,
      "cultures": 6754,
      "appliqué": 6755,
      "existants": 6756,
      "hands": 6757,
      "semblent": 6758,
      "participate": 6759,
      "higher": 6760,
      "souhaitons": 6761,
      "judice": 6762,
      "libertés": 6763,
      "Financial": 6764,
      "Articles": 6765,
      "définiti": 6766,
      "Liberal": 6767,
      "satisfactory": 6768,
      "innov": 6769,
      "énergies": 6770,
      "scientifique": 6771,
      "smaller": 6772,
      "arrive": 6773,
      "envisag": 6774,
      "attendent": 6775,
      "speaker": 6776,
      "législations": 6777,
      "dama": 6778,
      "activement": 6779,
      "158": 6780,
      "calling": 6781,
      "feeling": 6782,
      "stock": 6783,
      "établi": 6784,
      "Poetter": 6785,
      "côtes": 6786,
      "détails": 6787,
      "please": 6788,
      "vérité": 6789,
      "kestein": 6790,
      "réglementations": 6791,
      "conseillers": 6792,
      "fixé": 6793,
      "Agree": 6794,
      "dérou": 6795,
      "ambitions": 6796,
      "brièvement": 6797,
      "apparaît": 6798,
      "shows": 6799,
      "happening": 6800,
      "bearing": 6801,
      "ampleur": 6802,
      "destinées": 6803,
      "professional": 6804,
      "falls": 6805,
      "carrying": 6806,
      "Experts": 6807,
      "felt": 6808,
      "rendt": 6809,
      "Because": 6810,
      "debated": 6811,
      "clarity": 6812,
      "families": 6813,
      "adéquate": 6814,
      "intégrée": 6815,
      "reply": 6816,
      "réseau": 6817,
      "formuler": 6818,
      "incorporated": 6819,
      "depth": 6820,
      "appears": 6821,
      "énormément": 6822,
      "répète": 6823,
      "supplémentaires": 6824,
      "événement": 6825,
      "reconnu": 6826,
      "attempt": 6827,
      "Africa": 6828,
      "condemn": 6829,
      "starting": 6830,
      "ignore": 6831,
      "suggestions": 6832,
      "longue": 6833,
      "italien": 6834,
      "Lastly": 6835,
      "fifth": 6836,
      "destruction": 6837,
      "enhance": 6838,
      "résolument": 6839,
      "intéressant": 6840,
      "autrichienne": 6841,
      "average": 6842,
      "explanation": 6843,
      "vérifier": 6844,
      "World": 6845,
      "PIB": 6846,
      "inégalités": 6847,
      "language": 6848,
      "campaign": 6849,
      "kopoulos": 6850,
      "novembre": 6851,
      "Auditors": 6852,
      "Behrendt": 6853,
      "tribunaux": 6854,
      "Ahern": 6855,
      "Bolkestein": 6856,
      "Dimitra": 6857,
      "Dublin": 6858,
      "Evans": 6859,
      "Swobod": 6860,
      "Spanish": 6861,
      "climate": 6862,
      "scrut": 6863,
      "thousand": 6864,
      "topical": 6865,
      "Poettering": 6866,
      "Dimitrakopoulos": 6867,
      "Swoboda": 6868,
      "+,": 6869,
      "28": 6870,
      "33": 6871,
      "Amo": 6872,
      "Eastern": 6873,
      "Gas": 6874,
      "June": 6875,
      "NER": 6876,
      "Naz": 6877,
      "SV": 6878,
      "Sans": 6879,
      "SEC": 6880,
      "UK": 6881,
      "Vice": 6882,
      "Will": 6883,
      "Where": 6884,
      "apo": 6885,
      "ather": 6886,
      "eaux": 6887,
      "frap": 6888,
      "hours": 6889,
      "jun": 6890,
      "mai": 6891,
      "miss": 6892,
      "nine": 6893,
      "odic": 6894,
      "pat": 6895,
      "sommet": 6896,
      "wid": 6897,
      "ying": 6898,
      "Étant": 6899,
      "èse": 6900,
      "èces": 6901,
      "èlement": 6902,
      "éten": 6903,
      "énormes": 6904,
      "revoir": 6905,
      "reiter": 6906,
      "retain": 6907,
      "retraite": 6908,
      "annex": 6909,
      "deep": 6910,
      "lez": 6911,
      "ores": 6912,
      "las": 6913,
      "roo": 6914,
      "arder": 6915,
      "simul": 6916,
      "neither": 6917,
      "lives": 6918,
      "chré": 6919,
      "proof": 6920,
      "proche": 6921,
      "propag": 6922,
      "meurs": 6923,
      "ourg": 6924,
      "resto": 6925,
      "rétro": 6926,
      "réaction": 6927,
      "dessus": 6928,
      "design": 6929,
      "becomes": 6930,
      "dign": 6931,
      "démission": 6932,
      "délits": 6933,
      "weight": 6934,
      "portent": 6935,
      "modes": 6936,
      "motions": 6937,
      "moving": 6938,
      "treaties": 6939,
      "apporte": 6940,
      "voient": 6941,
      "trust": 6942,
      "vivre": 6943,
      "gique": 6944,
      "avais": 6945,
      "précise": 6946,
      "dise": 6947,
      "dispo": 6948,
      "ghten": 6949,
      "poses": 6950,
      "néer": 6951,
      "obser": 6952,
      "obtenu": 6953,
      "inscrit": 6954,
      "saur": 6955,
      "sake": 6956,
      "pread": 6957,
      "Instead": 6958,
      "presence": 6959,
      "primar": 6960,
      "Presidents": 6961,
      "ctif": 6962,
      "entreprendre": 6963,
      "feasi": 6964,
      "communautés": 6965,
      "entirely": 6966,
      "ouvez": 6967,
      "speed": 6968,
      "spect": 6969,
      "merous": 6970,
      "tough": 6971,
      "changed": 6972,
      "changing": 6973,
      "Ensuite": 6974,
      "nouvel": 6975,
      "lieux": 6976,
      "underlying": 6977,
      "anyone": 6978,
      "igne": 6979,
      "travaille": 6980,
      "principale": 6981,
      "ligence": 6982,
      "différence": 6983,
      "productive": 6984,
      "justifier": 6985,
      "anticip": 6986,
      "supports": 6987,
      "créé": 6988,
      "juin": 6989,
      "chargé": 6990,
      "chargée": 6991,
      "gouvernementales": 6992,
      "débats": 6993,
      "auront": 6994,
      "respects": 6995,
      "logie": 6996,
      "facts": 6997,
      "structurelles": 6998,
      "pluri": 6999,
      "fonctionne": 7000,
      "autrement": 7001,
      "periodic": 7002,
      "provides": 7003,
      "instances": 7004,
      "Seix": 7005,
      "considéré": 7006,
      "spéculation": 7007,
      "Christi": 7008,
      "highli": 7009,
      "highest": 7010,
      "independence": 7011,
      "appropriée": 7012,
      "ALTE": 7013,
      "Qui": 7014,
      "électron": 7015,
      "évoquer": 7016,
      "fondamentale": 7017,
      "Like": 7018,
      "faute": 7019,
      "idéo": 7020,
      "sûre": 7021,
      "études": 7022,
      "atteinte": 7023,
      "afternoon": 7024,
      "aucuns": 7025,
      "openness": 7026,
      "ario": 7027,
      "requis": 7028,
      "respective": 7029,
      "owner": 7030,
      "individuals": 7031,
      "reduced": 7032,
      "législature": 7033,
      "leaders": 7034,
      "coût": 7035,
      "coûte": 7036,
      "calls": 7037,
      "inflation": 7038,
      "preventing": 7039,
      "moyenne": 7040,
      "judiciaires": 7041,
      "attaquer": 7042,
      "definition": 7043,
      "clés": 7044,
      "Désir": 7045,
      "immigrés": 7046,
      "renforcée": 7047,
      "operate": 7048,
      "elimin": 7049,
      "increasingly": 7050,
      "potentiel": 7051,
      "allel": 7052,
      "engagé": 7053,
      ")).": 7054,
      "similaires": 7055,
      "concrètement": 7056,
      "octroy": 7057,
      "octroyer": 7058,
      "judges": 7059,
      "Malgré": 7060,
      "citoyennes": 7061,
      "failure": 7062,
      "assurance": 7063,
      "bureaucratic": 7064,
      "Palestine": 7065,
      "transfrontaliers": 7066,
      "clarify": 7067,
      "investments": 7068,
      "debating": 7069,
      "totale": 7070,
      "adresser": 7071,
      "adéqu": 7072,
      "futur": 7073,
      "details": 7074,
      "appliquée": 7075,
      "accueil": 7076,
      "linked": 7077,
      "described": 7078,
      "proceedings": 7079,
      "élus": 7080,
      "rablement": 7081,
      "contained": 7082,
      "étudier": 7083,
      "rempla": 7084,
      "abouti": 7085,
      "Oui": 7086,
      "remarks": 7087,
      "deliver": 7088,
      "promised": 7089,
      "abordé": 7090,
      "désire": 7091,
      "entrepreneur": 7092,
      "Karas": 7093,
      "Americ": 7094,
      "tempor": 7095,
      "reflect": 7096,
      "aspirations": 7097,
      "appointment": 7098,
      "boost": 7099,
      "transition": 7100,
      "chiffres": 7101,
      "régulièrement": 7102,
      "enquête": 7103,
      "rejected": 7104,
      "dirige": 7105,
      "Greens": 7106,
      "equally": 7107,
      "revêt": 7108,
      "categ": 7109,
      "MEPs": 7110,
      "Plus": 7111,
      "concréti": 7112,
      "enlarged": 7113,
      "accroître": 7114,
      "israélien": 7115,
      "package": 7116,
      "anchovy": 7117,
      "Graça": 7118,
      "gouvernance": 7119,
      "Regulation": 7120,
      "périodique": 7121,
      "scrutin": 7122,
      "Seixas": 7123,
      "Christian": 7124,
      "ALTENER": 7125,
      "%,": 7126,
      "1er": 7127,
      "38": 7128,
      "700": 7129,
      "98": 7130,
      "Are": 7131,
      "Gar": 7132,
      "Gal": 7133,
      "Gaz": 7134,
      "Med": 7135,
      "Même": 7136,
      "Pla": 7137,
      "Rome": 7138,
      "SC": 7139,
      "Ste": 7140,
      "Sum": 7141,
      "Terr": 7142,
      "Ver": 7143,
      "West": 7144,
      "Wales": 7145,
      "béta": 7146,
      "cof": 7147,
      "domm": 7148,
      "dant": 7149,
      "drug": 7150,
      "em": 7151,
      "ements": 7152,
      "fat": 7153,
      "fabri": 7154,
      "gas": 7155,
      "ior": 7156,
      "ken": 7157,
      "mun": 7158,
      "na": 7159,
      "nalité": 7160,
      "oto": 7161,
      "pati": 7162,
      "pped": 7163,
      "sk": 7164,
      "site": 7165,
      "­,": 7166,
      "âge": 7167,
      "enforcement": 7168,
      "iner": 7169,
      "incom": 7170,
      "repose": 7171,
      "tire": 7172,
      "timet": 7173,
      "anen": 7174,
      "issement": 7175,
      "eries": 7176,
      "decentralised": 7177,
      "ently": 7178,
      "leader": 7179,
      "itons": 7180,
      "arm": 7181,
      "alise": 7182,
      "allowed": 7183,
      "ombre": 7184,
      "told": 7185,
      "ash": 7186,
      "offici": 7187,
      "veille": 7188,
      "conque": 7189,
      "concili": 7190,
      "liable": 7191,
      "selection": 7192,
      "chant": 7193,
      "prosecu": 7194,
      "protest": 7195,
      "peur": 7196,
      "stration": 7197,
      "récla": 7198,
      "révé": 7199,
      "rétab": 7200,
      "undi": 7201,
      "unless": 7202,
      "forcing": 7203,
      "becoming": 7204,
      "division": 7205,
      "notion": 7206,
      "noire": 7207,
      "acy": 7208,
      "acknowled": 7209,
      "dépar": 7210,
      "débu": 7211,
      "détru": 7212,
      "onses": 7213,
      "abus": 7214,
      "magni": 7215,
      "expos": 7216,
      "advo": 7217,
      "moine": 7218,
      "pourcent": 7219,
      "ficial": 7220,
      "coles": 7221,
      "coordon": 7222,
      "tative": 7223,
      "prête": 7224,
      "doter": 7225,
      "ayons": 7226,
      "perte": 7227,
      "dents": 7228,
      "commence": 7229,
      "certitude": 7230,
      "serons": 7231,
      "disse": 7232,
      "sho": 7233,
      "options": 7234,
      "puiss": 7235,
      "ountable": 7236,
      "tention": 7237,
      "ulté": 7238,
      "arding": 7239,
      "marge": 7240,
      "therlands": 7241,
      "prevention": 7242,
      "resig": 7243,
      "légal": 7244,
      "contacts": 7245,
      "south": 7246,
      "worthy": 7247,
      "nationally": 7248,
      "aissent": 7249,
      "entrer": 7250,
      "clas": 7251,
      "1990": 7252,
      "feed": 7253,
      "entitled": 7254,
      "chef": 7255,
      "chemin": 7256,
      "likely": 7257,
      "possibly": 7258,
      "uphold": 7259,
      "Laan": 7260,
      "Lama": 7261,
      "ouverte": 7262,
      "rende": 7263,
      "intégr": 7264,
      "étendre": 7265,
      "earth": 7266,
      "somewhat": 7267,
      "bref": 7268,
      "undertake": 7269,
      "impôt": 7270,
      "2001": 7271,
      "petite": 7272,
      "aliment": 7273,
      "aliments": 7274,
      "examples": 7275,
      "penditure": 7276,
      "essence": 7277,
      "products": 7278,
      "engend": 7279,
      "jugement": 7280,
      "tempête": 7281,
      "capables": 7282,
      "actualité": 7283,
      "milit": 7284,
      "considers": 7285,
      "considerations": 7286,
      "essentiellement": 7287,
      "Depuis": 7288,
      "bran": 7289,
      "riez": 7290,
      "structurelle": 7291,
      "joué": 7292,
      "durant": 7293,
      "différenci": 7294,
      "considérablement": 7295,
      "introducing": 7296,
      "sphere": 7297,
      "collection": 7298,
      "déclare": 7299,
      "prochains": 7300,
      "présidente": 7301,
      "closer": 7302,
      "joy": 7303,
      "ignent": 7304,
      "looked": 7305,
      "obliged": 7306,
      "vari": 7307,
      "montrent": 7308,
      "institutionnel": 7309,
      "furthermore": 7310,
      "envisaged": 7311,
      "CO2": 7312,
      "respond": 7313,
      "prennent": 7314,
      "tellement": 7315,
      "honour": 7316,
      "referring": 7317,
      "législative": 7318,
      "législatives": 7319,
      "véhicule": 7320,
      "excellente": 7321,
      "deni": 7322,
      "roads": 7323,
      "allowing": 7324,
      "reaching": 7325,
      "opportunité": 7326,
      "associated": 7327,
      "minimales": 7328,
      "voyons": 7329,
      "regrettable": 7330,
      "failed": 7331,
      "violence": 7332,
      "discuté": 7333,
      "navire": 7334,
      "connaissons": 7335,
      "haute": 7336,
      "relativement": 7337,
      "posting": 7338,
      "embourg": 7339,
      "respecte": 7340,
      "writ": 7341,
      "couple": 7342,
      "unanimously": 7343,
      "explicitement": 7344,
      "affirmer": 7345,
      "concret": 7346,
      "partnerships": 7347,
      "repeated": 7348,
      "bureaucratique": 7349,
      "refuser": 7350,
      "nucléaires": 7351,
      "partenariats": 7352,
      "persist": 7353,
      "justifiée": 7354,
      "granting": 7355,
      "exprimées": 7356,
      "immediate": 7357,
      "voisins": 7358,
      "ikh": 7359,
      "running": 7360,
      "réponses": 7361,
      "Belgium": 7362,
      "massive": 7363,
      "richesse": 7364,
      "technologie": 7365,
      "xenophobic": 7366,
      "diminution": 7367,
      "britanniques": 7368,
      "optimis": 7369,
      "borne": 7370,
      "comprenons": 7371,
      "Asie": 7372,
      "Netherlands": 7373,
      "waiting": 7374,
      "suggested": 7375,
      "insulaires": 7376,
      "towns": 7377,
      "absten": 7378,
      "neuf": 7379,
      "humaine": 7380,
      "evidence": 7381,
      "relève": 7382,
      "figures": 7383,
      "pillar": 7384,
      "heavy": 7385,
      "Valent": 7386,
      "endeav": 7387,
      "interprétation": 7388,
      "Troisièmement": 7389,
      "protéger": 7390,
      "alternative": 7391,
      "Kyoto": 7392,
      "precedent": 7393,
      "patrimoine": 7394,
      "enfants": 7395,
      "systématique": 7396,
      "While": 7397,
      "salariés": 7398,
      "quotidien": 7399,
      "surveillance": 7400,
      "Luxembourg": 7401,
      "data": 7402,
      "Agreement": 7403,
      "thousands": 7404,
      "Gaza": 7405,
      "Summit": 7406,
      "Terrón": 7407,
      "incombe": 7408,
      "%.": 7409,
      "Aid": 7410,
      "Bo": 7411,
      "Davi": 7412,
      "ES": 7413,
      "Jap": 7414,
      "Just": 7415,
      "Many": 7416,
      "New": 7417,
      "National": 7418,
      "ama": 7419,
      "bâ": 7420,
      "bin": 7421,
      "bout": 7422,
      "city": 7423,
      "cède": 7424,
      "hom": 7425,
      "hur": 7426,
      "hop": 7427,
      "house": 7428,
      "hélas": 7429,
      "mort": 7430,
      "nish": 7431,
      "pap": 7432,
      "pain": 7433,
      "save": 7434,
      "usu": 7435,
      "vè": 7436,
      "win": 7437,
      "went": 7438,
      "éné": 7439,
      "éducation": 7440,
      "ît": 7441,
      "espo": 7442,
      "enth": 7443,
      "income": 7444,
      "inév": 7445,
      "rera": 7446,
      "recu": 7447,
      "remit": 7448,
      "reyer": 7449,
      "tiques": 7450,
      "tiendra": 7451,
      "anie": 7452,
      "isté": 7453,
      "isée": 7454,
      "islands": 7455,
      "devez": 7456,
      "entôt": 7457,
      "orale": 7458,
      "quen": 7459,
      "room": 7460,
      "race": 7461,
      "ralement": 7462,
      "rage": 7463,
      "chet": 7464,
      "chée": 7465,
      "champ": 7466,
      "prove": 7467,
      "proli": 7468,
      "restre": 7469,
      "restent": 7470,
      "rési": 7471,
      "réside": 7472,
      "unani": 7473,
      "rid": 7474,
      "param": 7475,
      "dictions": 7476,
      "dirai": 7477,
      "noted": 7478,
      "sumer": 7479,
      "supéri": 7480,
      "aimed": 7481,
      "acqui": 7482,
      "détriment": 7483,
      "whom": 7484,
      "soever": 7485,
      "mach": 7486,
      "lumi": 7487,
      "comed": 7488,
      "portée": 7489,
      "exists": 7490,
      "expenditure": 7491,
      "admi": 7492,
      "pourrions": 7493,
      "fié": 7494,
      "impé": 7495,
      "coque": 7496,
      "coexistence": 7497,
      "jeux": 7498,
      "vivement": 7499,
      "outs": 7500,
      "pru": 7501,
      "perdu": 7502,
      "prévue": 7503,
      "prévenir": 7504,
      "servir": 7505,
      "ffe": 7506,
      "traffic": 7507,
      "ounded": 7508,
      "guer": 7509,
      "mante": 7510,
      "abled": 7511,
      "focu": 7512,
      "008": 7513,
      "ulf": 7514,
      "monter": 7515,
      "monito": 7516,
      "got": 7517,
      "marée": 7518,
      "formal": 7519,
      "forming": 7520,
      "llent": 7521,
      "lling": 7522,
      "contest": 7523,
      "soumises": 7524,
      "sées": 7525,
      "sélection": 7526,
      "mix": 7527,
      "regener": 7528,
      "worry": 7529,
      "ctifs": 7530,
      "ctivité": 7531,
      "bientôt": 7532,
      "veloppe": 7533,
      "Left": 7534,
      "visu": 7535,
      "visent": 7536,
      "partag": 7537,
      "check": 7538,
      "courir": 7539,
      "plasti": 7540,
      "issait": 7541,
      "Ceux": 7542,
      "alism": 7543,
      "virtu": 7544,
      "whatsoever": 7545,
      "worked": 7546,
      "numerous": 7547,
      "illegal": 7548,
      "affré": 7549,
      "ressort": 7550,
      "principales": 7551,
      "fusions": 7552,
      "mismanagement": 7553,
      "adoptée": 7554,
      "voudrait": 7555,
      "idance": 7556,
      "accepte": 7557,
      "relate": 7558,
      "getting": 7559,
      "valu": 7560,
      "valent": 7561,
      "signé": 7562,
      "oires": 7563,
      "juge": 7564,
      "contributed": 7565,
      "débattons": 7566,
      "inclusion": 7567,
      "demandent": 7568,
      "constitué": 7569,
      "favoured": 7570,
      "thority": 7571,
      "tentative": 7572,
      "uniforme": 7573,
      "univers": 7574,
      "concluded": 7575,
      "protecting": 7576,
      "standard": 7577,
      "priori": 7578,
      "truth": 7579,
      "farming": 7580,
      "cohér": 7581,
      "retour": 7582,
      "retards": 7583,
      "appeal": 7584,
      "fonctionner": 7585,
      "Republic": 7586,
      "Pourtant": 7587,
      "facile": 7588,
      "instaurer": 7589,
      "regulate": 7590,
      "permettrait": 7591,
      "naturelles": 7592,
      "souhaitable": 7593,
      "profits": 7594,
      "Authority": 7595,
      "behavi": 7596,
      "soutiens": 7597,
      "internationales": 7598,
      "represented": 7599,
      "located": 7600,
      "Quant": 7601,
      "Quel": 7602,
      "multin": 7603,
      "élevées": 7604,
      "welcomed": 7605,
      "satisfied": 7606,
      "continuons": 7607,
      "continued": 7608,
      "awar": 7609,
      "exercer": 7610,
      "Alliance": 7611,
      "favorables": 7612,
      "affects": 7613,
      "montants": 7614,
      "prendra": 7615,
      "lined": 7616,
      "commentaires": 7617,
      "financements": 7618,
      "paroles": 7619,
      "actively": 7620,
      "successfully": 7621,
      "correctement": 7622,
      "define": 7623,
      "definitely": 7624,
      "accomplis": 7625,
      "technologique": 7626,
      "technological": 7627,
      "constaté": 7628,
      "played": 7629,
      "décider": 7630,
      "disparités": 7631,
      "infring": 7632,
      "industrial": 7633,
      "navig": 7634,
      "connaissances": 7635,
      "hauteur": 7636,
      "éché": 7637,
      "fixer": 7638,
      "supply": 7639,
      "postes": 7640,
      "extended": 7641,
      "commencé": 7642,
      "waters": 7643,
      "destinés": 7644,
      "competent": 7645,
      "competences": 7646,
      "engagés": 7647,
      "complexes": 7648,
      "Peut": 7649,
      "signalé": 7650,
      "soutenu": 7651,
      "Malheureusement": 7652,
      "civilisation": 7653,
      "sufficiently": 7654,
      "procedural": 7655,
      "strengthened": 7656,
      "assurances": 7657,
      "fiscale": 7658,
      "Regarding": 7659,
      "manifestation": 7660,
      "viendrait": 7661,
      "adoptées": 7662,
      "espérer": 7663,
      "légitime": 7664,
      "légitim": 7665,
      "salue": 7666,
      "obstacle": 7667,
      "operational": 7668,
      "adresse": 7669,
      "persons": 7670,
      "sauve": 7671,
      "formulées": 7672,
      "appliquées": 7673,
      "abandoned": 7674,
      "lateral": 7675,
      "incorporate": 7676,
      "lacking": 7677,
      "complètement": 7678,
      "treaty": 7679,
      "opposite": 7680,
      "opérations": 7681,
      "spoke": 7682,
      "elsewhere": 7683,
      "transfert": 7684,
      "exclusively": 7685,
      "dossiers": 7686,
      "compléter": 7687,
      "otti": 7688,
      "determination": 7689,
      "multiplic": 7690,
      "appui": 7691,
      "simplification": 7692,
      "quinquen": 7693,
      "mutual": 7694,
      "flags": 7695,
      "Lisbon": 7696,
      "Lisbonne": 7697,
      "campagne": 7698,
      "emergency": 7699,
      "humaines": 7700,
      "drafting": 7701,
      "topic": 7702,
      "endorse": 7703,
      "appreciate": 7704,
      "extraordinaire": 7705,
      "legitimate": 7706,
      "terrible": 7707,
      "expected": 7708,
      "préparer": 7709,
      "caractéris": 7710,
      "fragil": 7711,
      "dollars": 7712,
      "insurance": 7713,
      "cooperate": 7714,
      "mouvements": 7715,
      "departments": 7716,
      "approximately": 7717,
      "étrangères": 7718,
      "hémicycle": 7719,
      "accrue": 7720,
      "horizont": 7721,
      "exactement": 7722,
      "followed": 7723,
      "Bretagne": 7724,
      "Prime": 7725,
      "English": 7726,
      "définitif": 7727,
      "cofin": 7728,
      "rétablir": 7729,
      "written": 7730,
      "espoir": 7731,
      "unanime": 7732,
      "monitored": 7733,
      "behaviour": 7734,
      "+.": 7735,
      "012": 7736,
      "080": 7737,
      "29": 7738,
      "212": 7739,
      "31": 7740,
      "41": 7741,
      "55": 7742,
      "62": 7743,
      "86": 7744,
      "88": 7745,
      "Amé": 7746,
      "Arab": 7747,
      "B5": 7748,
      "Bour": 7749,
      "C4": 7750,
      "Clear": 7751,
      "During": 7752,
      "Hu": 7753,
      "Nat": 7754,
      "Nally": 7755,
      "Niel": 7756,
      "Oc": 7757,
      "Rand": 7758,
      "Sant": 7759,
      "Tous": 7760,
      "Vo": 7761,
      "Well": 7762,
      "Your": 7763,
      "aj": 7764,
      "affi": 7765,
      "ba": 7766,
      "bra": 7767,
      "dras": 7768,
      "fit": 7769,
      "fro": 7770,
      "filled": 7771,
      "gri": 7772,
      "ican": 7773,
      "kin": 7774,
      "kers": 7775,
      "macro": 7776,
      "oise": 7777,
      "pin": 7778,
      "pous": 7779,
      "pus": 7780,
      "pie": 7781,
      "push": 7782,
      "pouvez": 7783,
      "sav": 7784,
      "slic": 7785,
      "slight": 7786,
      "ube": 7787,
      "ump": 7788,
      "vux": 7789,
      "vendre": 7790,
      "zio": 7791,
      "än": 7792,
      "èdent": 7793,
      "élo": 7794,
      "égi": 7795,
      "ested": 7796,
      "enjoy": 7797,
      "enjeux": 7798,
      "thode": 7799,
      "inho": 7800,
      "infé": 7801,
      "remin": 7802,
      "react": 7803,
      "remet": 7804,
      "remédi": 7805,
      "tical": 7806,
      "isc": 7807,
      "isés": 7808,
      "erait": 7809,
      "outil": 7810,
      "dee": 7811,
      "depri": 7812,
      "decess": 7813,
      "death": 7814,
      "entry": 7815,
      "entail": 7816,
      "lever": 7817,
      "qua": 7818,
      "quons": 7819,
      "itre": 7820,
      "sias": 7821,
      "urent": 7822,
      "teau": 7823,
      "raire": 7824,
      "sele": 7825,
      "seve": 7826,
      "sept": 7827,
      "procla": 7828,
      "mem": 7829,
      "meilleurs": 7830,
      "poids": 7831,
      "uncertainty": 7832,
      "destro": 7833,
      "rique": 7834,
      "dir": 7835,
      "divi": 7836,
      "acknowledge": 7837,
      "défaut": 7838,
      "whatever": 7839,
      "Commissaires": 7840,
      "abling": 7841,
      "abstain": 7842,
      "irds": 7843,
      "irlandais": 7844,
      "lose": 7845,
      "porté": 7846,
      "exister": 7847,
      "agencies": 7848,
      "amin": 7849,
      "améri": 7850,
      "voil": 7851,
      "volution": 7852,
      "cot": 7853,
      "ending": 7854,
      "ténu": 7855,
      "passion": 7856,
      "passage": 7857,
      "surr": 7858,
      "perce": 7859,
      "perpet": 7860,
      "commend": 7861,
      "giques": 7862,
      "user": 7863,
      "précision": 7864,
      "disent": 7865,
      "ints": 7866,
      "purement": 7867,
      "gues": 7868,
      "manage": 7869,
      "observer": 7870,
      "inscrire": 7871,
      "insécurité": 7872,
      "foo": 7873,
      "minuti": 7874,
      "interim": 7875,
      "interrégionale": 7876,
      "007": 7877,
      "tenons": 7878,
      "predecess": 7879,
      "Then": 7880,
      "compla": 7881,
      "istance": 7882,
      "primor": 7883,
      "aison": 7884,
      "aisse": 7885,
      "visions": 7886,
      "chefs": 7887,
      "ception": 7888,
      "places": 7889,
      "mené": 7890,
      "crite": 7891,
      "feront": 7892,
      "voud": 7893,
      "langes": 7894,
      "financer": 7895,
      "supposed": 7896,
      "suppression": 7897,
      "alisme": 7898,
      "objections": 7899,
      "count": 7900,
      "firms": 7901,
      "régéné": 7902,
      "cked": 7903,
      "adoptés": 7904,
      "essay": 7905,
      "marked": 7906,
      "accepté": 7907,
      "intoler": 7908,
      "lsory": 7909,
      "plein": 7910,
      "crée": 7911,
      "juges": 7912,
      "juger": 7913,
      "intensive": 7914,
      "méthode": 7915,
      "charter": 7916,
      "informer": 7917,
      "actuels": 7918,
      "lessness": 7919,
      "vingt": 7920,
      "prioritaire": 7921,
      "auraient": 7922,
      "essentielles": 7923,
      "élimination": 7924,
      "cats": 7925,
      "transparente": 7926,
      "environnementaux": 7927,
      "plor": 7928,
      "exemples": 7929,
      "applique": 7930,
      "instar": 7931,
      "utilisé": 7932,
      "utilisés": 7933,
      "considérons": 7934,
      "généraux": 7935,
      "élargie": 7936,
      "organisé": 7937,
      "sembler": 7938,
      "participent": 7939,
      "payers": 7940,
      "déclarer": 7941,
      "assume": 7942,
      "soutient": 7943,
      "signifier": 7944,
      "capita": 7945,
      "generate": 7946,
      "represents": 7947,
      "Finnish": 7948,
      "offers": 7949,
      "offences": 7950,
      "refers": 7951,
      "Quand": 7952,
      "Quelles": 7953,
      "analyser": 7954,
      "rappelé": 7955,
      "publié": 7956,
      "pension": 7957,
      "linguis": 7958,
      "tourism": 7959,
      "laisse": 7960,
      "prends": 7961,
      "0003": 7962,
      "media": 7963,
      "suffisant": 7964,
      "scrap": 7965,
      "félicitons": 7966,
      "techniques": 7967,
      "requirement": 7968,
      "peaceful": 7969,
      "exigence": 7970,
      "identité": 7971,
      "identify": 7972,
      "bureau": 7973,
      "expertise": 7974,
      "completed": 7975,
      "conflits": 7976,
      "stood": 7977,
      "animaux": 7978,
      "orique": 7979,
      "defini": 7980,
      "consultations": 7981,
      "multiannual": 7982,
      "confirmed": 7983,
      "accompag": 7984,
      "turned": 7985,
      "familles": 7986,
      "décide": 7987,
      "Marinho": 7988,
      "previously": 7989,
      "faith": 7990,
      "Most": 7991,
      "chômeurs": 7992,
      "précédents": 7993,
      "CECA": 7994,
      "operating": 7995,
      "discutons": 7996,
      "careful": 7997,
      "avancée": 7998,
      "avancées": 7999,
      "disposent": 8000,
      "frontalières": 8001,
      "1967": 8002,
      "relatively": 8003,
      "benefits": 8004,
      "Danube": 8005,
      "Jusqu": 8006,
      "engagée": 8007,
      "impliquer": 8008,
      "constitutional": 8009,
      "constitutionnelles": 8010,
      "restrictions": 8011,
      "ajoutée": 8012,
      "fighting": 8013,
      "basically": 8014,
      "diversi": 8015,
      "correctly": 8016,
      "conscients": 8017,
      "warm": 8018,
      "Total": 8019,
      "référ": 8020,
      "recommandation": 8021,
      "debates": 8022,
      "détermination": 8023,
      "Certes": 8024,
      "attack": 8025,
      "consacrer": 8026,
      "polluter": 8027,
      "rigorous": 8028,
      "maintained": 8029,
      "choisir": 8030,
      "Premier": 8031,
      "exprimée": 8032,
      "crains": 8033,
      "annonce": 8034,
      "atteints": 8035,
      "deploy": 8036,
      "deplore": 8037,
      "convening": 8038,
      "majeur": 8039,
      "pétrole": 8040,
      "progressive": 8041,
      "McNally": 8042,
      "Safety": 8043,
      "limitée": 8044,
      "Belgique": 8045,
      "Rule": 8046,
      "envoyer": 8047,
      "combler": 8048,
      "exclusivement": 8049,
      "Serb": 8050,
      "firmly": 8051,
      "aboutir": 8052,
      "travaillent": 8053,
      "libéral": 8054,
      "éventuelle": 8055,
      "neighbouring": 8056,
      "started": 8057,
      "substantial": 8058,
      "quinze": 8059,
      "propriétaires": 8060,
      "survey": 8061,
      "handicapées": 8062,
      "American": 8063,
      "République": 8064,
      "worthwhile": 8065,
      "evident": 8066,
      "deadline": 8067,
      "confrontés": 8068,
      "protocole": 8069,
      "pilot": 8070,
      "solely": 8071,
      "détaillée": 8072,
      "restructuring": 8073,
      "proud": 8074,
      "récupération": 8075,
      "politicians": 8076,
      "contributing": 8077,
      "philosophi": 8078,
      "véritables": 8079,
      "facilitate": 8080,
      "occurred": 8081,
      "exhaus": 8082,
      "occurrence": 8083,
      "manufacturing": 8084,
      "honorable": 8085,
      "friendly": 8086,
      "BBC": 8087,
      "launched": 8088,
      "chairman": 8089,
      "components": 8090,
      "peripheral": 8091,
      "disponibles": 8092,
      "autonom": 8093,
      "consistant": 8094,
      "ideology": 8095,
      "children": 8096,
      "compulsory": 8097,
      "ultimately": 8098,
      "Amoco": 8099,
      "frappé": 8100,
      "primarily": 8101,
      "feasible": 8102,
      "requisite": 8103,
      "Galles": 8104,
      "Plath": 8105,
      "timetable": 8106,
      "resignation": 8107,
      "binding": 8108,
      "lumière": 8109,
      "légitimité": 8110,
      "Bourlanges": 8111,
      "Nielson": 8112,
      "Randzio": 8113,
      "régénération": 8114,
      ")]": 8115,
      "32": 8116,
      "90": 8117,
      "Ad": 8118,
      "Ano": 8119,
      "Allow": 8120,
      "Adri": 8121,
      "Cadi": 8122,
      "EL": 8123,
      "EM": 8124,
      "Every": 8125,
      "Hit": 8126,
      "Jac": 8127,
      "Lu": 8128,
      "MI": 8129,
      "Nord": 8130,
      "Wed": 8131,
      "Who": 8132,
      "Yes": 8133,
      "ape": 8134,
      "bl": 8135,
      "bla": 8136,
      "bac": 8137,
      "bons": 8138,
      "bul": 8139,
      "dar": 8140,
      "dge": 8141,
      "dite": 8142,
      "ered": 8143,
      "eties": 8144,
      "east": 8145,
      "fare": 8146,
      "fate": 8147,
      "gone": 8148,
      "han": 8149,
      "hous": 8150,
      "ical": 8151,
      "ification": 8152,
      "len": 8153,
      "mille": 8154,
      "nons": 8155,
      "opar": 8156,
      "pacte": 8157,
      "rates": 8158,
      "sat": 8159,
      "sad": 8160,
      "slow": 8161,
      "sph": 8162,
      "scepti": 8163,
      "tas": 8164,
      "tors": 8165,
      "tary": 8166,
      "ute": 8167,
      "usion": 8168,
      "ually": 8169,
      "vet": 8170,
      "vague": 8171,
      "yers": 8172,
      "âme": 8173,
      "éter": 8174,
      "érie": 8175,
      "éclair": 8176,
      "élabor": 8177,
      "ös": 8178,
      "ongoing": 8179,
      "ening": 8180,
      "enreg": 8181,
      "ended": 8182,
      "thly": 8183,
      "insecurity": 8184,
      "reven": 8185,
      "realis": 8186,
      "tie": 8187,
      "timber": 8188,
      "tibéta": 8189,
      "ane": 8190,
      "dec": 8191,
      "devenu": 8192,
      "delive": 8193,
      "deviennent": 8194,
      "devions": 8195,
      "leaving": 8196,
      "levée": 8197,
      "leçons": 8198,
      "quit": 8199,
      "ardis": 8200,
      "arisation": 8201,
      "aries": 8202,
      "aler": 8203,
      "allu": 8204,
      "ater": 8205,
      "atténu": 8206,
      "tobre": 8207,
      "tober": 8208,
      "assor": 8209,
      "lige": 8210,
      "limin": 8211,
      "liée": 8212,
      "aud": 8213,
      "ilst": 8214,
      "chent": 8215,
      "proven": 8216,
      "prosp": 8217,
      "proactive": 8218,
      "profondé": 8219,
      "mere": 8220,
      "meant": 8221,
      "stom": 8222,
      "réd": 8223,
      "réel": 8224,
      "réus": 8225,
      "réform": 8226,
      "réformer": 8227,
      "répercussions": 8228,
      "cifique": 8229,
      "forum": 8230,
      "parall": 8231,
      "parcours": 8232,
      "parlons": 8233,
      "dio": 8234,
      "diffic": 8235,
      "noter": 8236,
      "duties": 8237,
      "sums": 8238,
      "suites": 8239,
      "déri": 8240,
      "démo": 8241,
      "délic": 8242,
      "whilst": 8243,
      "tera": 8244,
      "absur": 8245,
      "absent": 8246,
      "mago": 8247,
      "loi": 8248,
      "composition": 8249,
      "comporte": 8250,
      "moti": 8251,
      "agissait": 8252,
      "lder": 8253,
      "codes": 8254,
      "trons": 8255,
      "pérer": 8256,
      "endrons": 8257,
      "taille": 8258,
      "surpris": 8259,
      "ctri": 8260,
      "perç": 8261,
      "avance": 8262,
      "ders": 8263,
      "préfé": 8264,
      "préserver": 8265,
      "disant": 8266,
      "distri": 8267,
      "disagreement": 8268,
      "disappear": 8269,
      "disabled": 8270,
      "traditions": 8271,
      "string": 8272,
      "mann": 8273,
      "inspire": 8274,
      "partiellement": 8275,
      "miner": 8276,
      "intergovernmental": 8277,
      "internationally": 8278,
      "itié": 8279,
      "larges": 8280,
      "contamin": 8281,
      "sév": 8282,
      "prices": 8283,
      "urely": 8284,
      "empêche": 8285,
      "transit": 8286,
      "clauses": 8287,
      "claires": 8288,
      "accountable": 8289,
      "visit": 8290,
      "hosp": 8291,
      "importantly": 8292,
      "politiquement": 8293,
      "nesday": 8294,
      "mettant": 8295,
      "mettons": 8296,
      "présentés": 8297,
      "conscient": 8298,
      "placer": 8299,
      "possibles": 8300,
      "initiate": 8301,
      "mercredi": 8302,
      "voulu": 8303,
      "alists": 8304,
      "approving": 8305,
      "humains": 8306,
      "understood": 8307,
      "impati": 8308,
      "societies": 8309,
      "illet": 8310,
      "drogue": 8311,
      "matur": 8312,
      "presents": 8313,
      "viewed": 8314,
      "diffusion": 8315,
      "ishing": 8316,
      "seeing": 8317,
      "seeking": 8318,
      "lower": 8319,
      "créent": 8320,
      "gérer": 8321,
      "juillet": 8322,
      "octobre": 8323,
      "métho": 8324,
      "stimu": 8325,
      "taxpayers": 8326,
      "energies": 8327,
      "charges": 8328,
      "contribue": 8329,
      "contribuera": 8330,
      "economically": 8331,
      "actuelles": 8332,
      "demanding": 8333,
      "organise": 8334,
      "considering": 8335,
      "phé": 8336,
      "applicables": 8337,
      "concurrenti": 8338,
      "stands": 8339,
      "premièrement": 8340,
      "essentially": 8341,
      "indication": 8342,
      "sinon": 8343,
      "tendance": 8344,
      "intel": 8345,
      "chercher": 8346,
      "Reform": 8347,
      "facilement": 8348,
      "instaur": 8349,
      "succes": 8350,
      "chosen": 8351,
      "différente": 8352,
      "qualities": 8353,
      "considérations": 8354,
      "juridiction": 8355,
      "shipo": 8356,
      "aside": 8357,
      "introduit": 8358,
      "suffered": 8359,
      "représentation": 8360,
      "représentant": 8361,
      "ctoral": 8362,
      "agricoles": 8363,
      "Auc": 8364,
      "orientale": 8365,
      "répond": 8366,
      "sincerely": 8367,
      "location": 8368,
      "Quoi": 8369,
      "électeurs": 8370,
      "satisfais": 8371,
      "encouraged": 8372,
      "limits": 8373,
      "termine": 8374,
      "donnée": 8375,
      "Schreyer": 8376,
      "background": 8377,
      "sectori": 8378,
      "cruciale": 8379,
      "institutionnelle": 8380,
      "linqu": 8381,
      "arrived": 8382,
      "scen": 8383,
      "practices": 8384,
      "difficulté": 8385,
      "inquième": 8386,
      "recevoir": 8387,
      "ariat": 8388,
      "honn": 8389,
      "acceptables": 8390,
      "path": 8391,
      "democratically": 8392,
      "annuels": 8393,
      "tranche": 8394,
      "sugg": 8395,
      "moral": 8396,
      "judicieux": 8397,
      "judicieuse": 8398,
      "moderne": 8399,
      "bene": 8400,
      "accompagner": 8401,
      "minimal": 8402,
      "minorité": 8403,
      "MEDA": 8404,
      "détachement": 8405,
      "eventually": 8406,
      "significance": 8407,
      "significative": 8408,
      "disposal": 8409,
      "sérieuses": 8410,
      "remerciements": 8411,
      "harmonie": 8412,
      "observation": 8413,
      "supplement": 8414,
      "écologiques": 8415,
      "shortcoming": 8416,
      "trouvent": 8417,
      "trouvé": 8418,
      "effectués": 8419,
      "Toutes": 8420,
      "strongly": 8421,
      "ECSC": 8422,
      "privés": 8423,
      "unanimity": 8424,
      "tardi": 8425,
      "Independent": 8426,
      "judgement": 8427,
      "Malte": 8428,
      "Malta": 8429,
      "accorde": 8430,
      "strengthening": 8431,
      "négative": 8432,
      "fondement": 8433,
      "fondements": 8434,
      "partageons": 8435,
      "manifesté": 8436,
      "fields": 8437,
      "Irish": 8438,
      "investigation": 8439,
      "grec": 8440,
      "déterminer": 8441,
      "suivants": 8442,
      "saluer": 8443,
      "isolation": 8444,
      "declare": 8445,
      "declaration": 8446,
      "touchées": 8447,
      "modèles": 8448,
      "futures": 8449,
      "retire": 8450,
      "choice": 8451,
      "réflexions": 8452,
      "persistent": 8453,
      "accessible": 8454,
      "convaincre": 8455,
      "reconnaît": 8456,
      "stake": 8457,
      "ethnique": 8458,
      "totalité": 8459,
      "description": 8460,
      "Saint": 8461,
      "mauvais": 8462,
      "condamnation": 8463,
      "attente": 8464,
      "pursuant": 8465,
      "diminuer": 8466,
      "traduction": 8467,
      "constituerait": 8468,
      "explained": 8469,
      "born": 8470,
      "lourde": 8471,
      "compensation": 8472,
      "approfondis": 8473,
      "stipulates": 8474,
      "delighted": 8475,
      "Asia": 8476,
      "listening": 8477,
      "seekers": 8478,
      "pavillons": 8479,
      "Such": 8480,
      "monopoles": 8481,
      "targeted": 8482,
      "Budgets": 8483,
      "Lorsque": 8484,
      "tanker": 8485,
      "tankers": 8486,
      "équilibré": 8487,
      "preparing": 8488,
      "hypocris": 8489,
      "Foreign": 8490,
      "profondeur": 8491,
      "TACIS": 8492,
      "vaste": 8493,
      "deserves": 8494,
      "prévues": 8495,
      "disciplinary": 8496,
      "rédigé": 8497,
      "tolerance": 8498,
      "compréhension": 8499,
      "China": 8500,
      "Chinese": 8501,
      "attentivement": 8502,
      "Albani": 8503,
      "supranational": 8504,
      "wood": 8505,
      "privilégi": 8506,
      "criticisms": 8507,
      "qualifiée": 8508,
      "persua": 8509,
      "géographique": 8510,
      "utilité": 8511,
      "Directorate": 8512,
      "délivrance": 8513,
      "Environment": 8514,
      "constantly": 8515,
      "July": 8516,
      "palestini": 8517,
      "begun": 8518,
      "dismantling": 8519,
      "simultan": 8520,
      "chrétiens": 8521,
      "restore": 8522,
      "travailleur": 8523,
      "électronique": 8524,
      "Steel": 8525,
      "concilier": 8526,
      "machine": 8527,
      "focused": 8528,
      "regeneration": 8529,
      "awareness": 8530,
      "Clearly": 8531,
      "October": 8532,
      "remédier": 8533,
      "voilà": 8534,
      "surrounding": 8535,
      "exhaustive": 8536,
      "Another": 8537,
      "Cadiz": 8538,
      "Hitler": 8539,
      "Wednesday": 8540,
      "delivered": 8541,
      "profondément": 8542,
      "difficiles": 8543,
      "08": 8544,
      "280": 8545,
      "42": 8546,
      "400": 8547,
      "57": 8548,
      "500": 8549,
      "70": 8550,
      "Del": 8551,
      "Fas": 8552,
      "Fri": 8553,
      "Hat": 8554,
      "Have": 8555,
      "Lo": 8556,
      "MM": 8557,
      "Mor": 8558,
      "None": 8559,
      "PA": 8560,
      "Pak": 8561,
      "Pino": 8562,
      "Sh": 8563,
      "USA": 8564,
      "VO": 8565,
      "Ve": 8566,
      "cités": 8567,
      "diterran": 8568,
      "ean": 8569,
      "ecu": 8570,
      "euses": 8571,
      "founding": 8572,
      "hour": 8573,
      "hés": 8574,
      "hér": 8575,
      "ido": 8576,
      "jac": 8577,
      "ked": 8578,
      "leng": 8579,
      "mme": 8580,
      "mét": 8581,
      "masse": 8582,
      "pir": 8583,
      "pages": 8584,
      "ril": 8585,
      "rul": 8586,
      "rateurs": 8587,
      "routes": 8588,
      "sw": 8589,
      "sation": 8590,
      "saving": 8591,
      "scru": 8592,
      "tun": 8593,
      "tag": 8594,
      "tany": 8595,
      "uv": 8596,
      "vint": 8597,
      "vul": 8598,
      "wre": 8599,
      "ye": 8600,
      "yn": 8601,
      "yss": 8602,
      "zid": 8603,
      "çant": 8604,
      "éro": 8605,
      "érer": 8606,
      "îles": 8607,
      "òlib": 8608,
      "enver": 8609,
      "ensive": 8610,
      "encing": 8611,
      "enabling": 8612,
      "inadequate": 8613,
      "rec": 8614,
      "rem": 8615,
      "remettre": 8616,
      "remove": 8617,
      "revenu": 8618,
      "regime": 8619,
      "redistribution": 8620,
      "tienne": 8621,
      "tiennent": 8622,
      "isées": 8623,
      "outer": 8624,
      "ouvrir": 8625,
      "decentralisation": 8626,
      "detriment": 8627,
      "quasi": 8628,
      "rog": 8629,
      "sibles": 8630,
      "asser": 8631,
      "astat": 8632,
      "astri": 8633,
      "offr": 8634,
      "neo": 8635,
      "neur": 8636,
      "vel": 8637,
      "veill": 8638,
      "conserver": 8639,
      "confine": 8640,
      "auvri": 8641,
      "cht": 8642,
      "prov": 8643,
      "prohi": 8644,
      "strai": 8645,
      "réconciliation": 8646,
      "unnecessary": 8647,
      "unprecedent": 8648,
      "rieurs": 8649,
      "fortes": 8650,
      "forêts": 8651,
      "died": 8652,
      "notice": 8653,
      "suivent": 8654,
      "accomm": 8655,
      "dération": 8656,
      "décesse": 8657,
      "décentralisation": 8658,
      "démante": 8659,
      "estors": 8660,
      "log": 8661,
      "ext": 8662,
      "exposé": 8663,
      "execu": 8664,
      "motor": 8665,
      "agents": 8666,
      "custom": 8667,
      "imes": 8668,
      "immen": 8669,
      "endro": 8670,
      "jeopar": 8671,
      "téri": 8672,
      "survi": 8673,
      "doive": 8674,
      "perform": 8675,
      "perdre": 8676,
      "gig": 8677,
      "ills": 8678,
      "précon": 8679,
      "préoccupé": 8680,
      "préjudice": 8681,
      "prédécesse": 8682,
      "disappointed": 8683,
      "shop": 8684,
      "posent": 8685,
      "gradu": 8686,
      "ounce": 8687,
      "guidance": 8688,
      "foi": 8689,
      "interference": 8690,
      "interinstitutional": 8691,
      "interested": 8692,
      "0012": 8693,
      "gramme": 8694,
      "Thyss": 8695,
      "residence": 8696,
      "compag": 8697,
      "complic": 8698,
      "complet": 8699,
      "prescri": 8700,
      "soup": 8701,
      "sought": 8702,
      "micro": 8703,
      "milieux": 8704,
      "translation": 8705,
      "devastat": 8706,
      "Leban": 8707,
      "carences": 8708,
      "accrois": 8709,
      "visa": 8710,
      "feu": 8711,
      "fonctions": 8712,
      "appauvri": 8713,
      "partly": 8714,
      "journée": 8715,
      "chec": 8716,
      "nera": 8717,
      "dsman": 8718,
      "présentant": 8719,
      "consis": 8720,
      "quelconque": 8721,
      "ferons": 8722,
      "fermet": 8723,
      "lancé": 8724,
      "proposés": 8725,
      "aliste": 8726,
      "renon": 8727,
      "rencont": 8728,
      "objection": 8729,
      "changé": 8730,
      "channels": 8731,
      "ratified": 8732,
      "numbers": 8733,
      "wners": 8734,
      "affron": 8735,
      "match": 8736,
      "presenting": 8737,
      "factors": 8738,
      "acceptés": 8739,
      "raising": 8740,
      "justifie": 8741,
      "pouvions": 8742,
      "pleted": 8743,
      "gani": 8744,
      "maintien": 8745,
      "amener": 8746,
      "particuliers": 8747,
      "largely": 8748,
      "débattu": 8749,
      "susp": 8750,
      "suscité": 8751,
      "suscepti": 8752,
      "organe": 8753,
      "corpus": 8754,
      "libres": 8755,
      "lessons": 8756,
      "tenté": 8757,
      "tenter": 8758,
      "transportation": 8759,
      "believes": 8760,
      "aurais": 8761,
      "indiqué": 8762,
      "banques": 8763,
      "banks": 8764,
      "authorised": 8765,
      "Once": 8766,
      "simples": 8767,
      "expi": 8768,
      "mentionne": 8769,
      "sortir": 8770,
      "éliens": 8771,
      "actif": 8772,
      "catho": 8773,
      "owners": 8774,
      "processes": 8775,
      "exemptions": 8776,
      "instamment": 8777,
      "contradictions": 8778,
      "Austrians": 8779,
      "qualit": 8780,
      "considérables": 8781,
      "généralement": 8782,
      "Chine": 8783,
      "organisme": 8784,
      "thoughts": 8785,
      "payments": 8786,
      "pilier": 8787,
      "pièces": 8788,
      "nécessairement": 8789,
      "differenti": 8790,
      "welfare": 8791,
      "examiné": 8792,
      "examining": 8793,
      "examined": 8794,
      "satisfait": 8795,
      "satisfaire": 8796,
      "juridiquement": 8797,
      "Trade": 8798,
      "nellement": 8799,
      "Autrich": 8800,
      "looks": 8801,
      "limitation": 8802,
      "dépendance": 8803,
      "obligatoire": 8804,
      "accountability": 8805,
      "Israéliens": 8806,
      "absolute": 8807,
      "commenter": 8808,
      "recommande": 8809,
      "suffisante": 8810,
      "offices": 8811,
      "entered": 8812,
      "prenons": 8813,
      "happens": 8814,
      "nettement": 8815,
      "coordinate": 8816,
      "senior": 8817,
      "précises": 8818,
      "préciser": 8819,
      "negotiating": 8820,
      "subsidies": 8821,
      "honest": 8822,
      "pacifique": 8823,
      "réduit": 8824,
      "identity": 8825,
      "identified": 8826,
      "purposes": 8827,
      "correcte": 8828,
      "suggestion": 8829,
      "Cox": 8830,
      "endum": 8831,
      "allows": 8832,
      "réalisés": 8833,
      "guaranteed": 8834,
      "Barón": 8835,
      "accomplir": 8836,
      "Atlan": 8837,
      "Health": 8838,
      "vehicle": 8839,
      "doubts": 8840,
      "doubtedly": 8841,
      "évalu": 8842,
      "holds": 8843,
      "holding": 8844,
      "playing": 8845,
      "frontiers": 8846,
      "côte": 8847,
      "consommation": 8848,
      "franch": 8849,
      "violations": 8850,
      "précédentes": 8851,
      "quotas": 8852,
      "hausse": 8853,
      "powerful": 8854,
      "abolish": 8855,
      "recognises": 8856,
      "fixés": 8857,
      "saisir": 8858,
      "Agri": 8859,
      "postpon": 8860,
      "extensive": 8861,
      "sanction": 8862,
      "constra": 8863,
      "acquit": 8864,
      "movements": 8865,
      "engaged": 8866,
      "restrictive": 8867,
      "inos": 8868,
      "remaining": 8869,
      "testing": 8870,
      "explication": 8871,
      "bénéficie": 8872,
      "schedu": 8873,
      "anciens": 8874,
      "agrees": 8875,
      "keeping": 8876,
      "indications": 8877,
      "sensibles": 8878,
      "removed": 8879,
      "clarification": 8880,
      "clarifier": 8881,
      "Syrian": 8882,
      "delays": 8883,
      "apporté": 8884,
      "consacré": 8885,
      "touchant": 8886,
      "soulever": 8887,
      "recommendation": 8888,
      "intégrées": 8889,
      "erreur": 8890,
      "déploy": 8891,
      "appliqués": 8892,
      "consequence": 8893,
      "allocation": 8894,
      "atrice": 8895,
      "dégager": 8896,
      "sollic": 8897,
      "rejette": 8898,
      "0104": 8899,
      "0107": 8900,
      "ikistan": 8901,
      "deleg": 8902,
      "lacunes": 8903,
      "pétrolier": 8904,
      "pétroliers": 8905,
      "progresser": 8906,
      "Belgian": 8907,
      "attempts": 8908,
      "spoken": 8909,
      "débar": 8910,
      "déblo": 8911,
      "territorial": 8912,
      "pursue": 8913,
      "Roman": 8914,
      "consolidate": 8915,
      "extérieures": 8916,
      "écouter": 8917,
      "charterer": 8918,
      "Greek": 8919,
      "advantage": 8920,
      "traditional": 8921,
      "ignorer": 8922,
      "rieurement": 8923,
      "modifiant": 8924,
      "Maastri": 8925,
      "signale": 8926,
      "Democrat": 8927,
      "Conser": 8928,
      "easily": 8929,
      "propriétaire": 8930,
      "entrepreneurs": 8931,
      "fiscalité": 8932,
      "disponible": 8933,
      "pouvaient": 8934,
      "fallu": 8935,
      "fallait": 8936,
      "validité": 8937,
      "validity": 8938,
      "studies": 8939,
      "confidentiality": 8940,
      "faiblesse": 8941,
      "relèvent": 8942,
      "interpreted": 8943,
      "wides": 8944,
      "fédéral": 8945,
      "barriers": 8946,
      "climat": 8947,
      "réussir": 8948,
      "diplomatic": 8949,
      "déposés": 8950,
      "prévus": 8951,
      "subsiste": 8952,
      "jurisdiction": 8953,
      "harmful": 8954,
      "restructuration": 8955,
      "Russie": 8956,
      "witnes": 8957,
      "accordée": 8958,
      "tolérance": 8959,
      "compréhensible": 8960,
      "philosophy": 8961,
      "syndi": 8962,
      "supranation": 8963,
      "chapitre": 8964,
      "iterranean": 8965,
      "embargo": 8966,
      "USD": 8967,
      "bomb": 8968,
      "decade": 8969,
      "conviction": 8970,
      "avalan": 8971,
      "alloués": 8972,
      "recycled": 8973,
      "Constitutional": 8974,
      "décennies": 8975,
      "incidence": 8976,
      "espagnol": 8977,
      "Brittany": 8978,
      "Banotti": 8979,
      "disadvantaged": 8980,
      "allemands": 8981,
      "explicitly": 8982,
      "damaging": 8983,
      "Gasòlib": 8984,
      "missing": 8985,
      "disposions": 8986,
      "observed": 8987,
      "idéologie": 8988,
      "adéquates": 8989,
      "dirigeants": 8990,
      "categories": 8991,
      "concrétiser": 8992,
      "Gargani": 8993,
      "Mediterranean": 8994,
      "coordonner": 8995,
      "earthqu": 8996,
      "denied": 8997,
      "papi": 8998,
      "inévit": 8999,
      "multination": 9000,
      "Santer": 9001,
      "kinds": 9002,
      "slick": 9003,
      "vendredi": 9004,
      "éloig": 9005,
      "deprived": 9006,
      "severely": 9007,
      "destroy": 9008,
      "perpetr": 9009,
      "Lucas": 9010,
      "realistic": 9011,
      "rédaction": 9012,
      "méthodes": 9013,
      "shipowners": 9014,
      "scenario": 9015,
      "shortcomings": 9016,
      "Friday": 9017,
      "Hatzid": 9018,
      "Pakistan": 9019,
      "Pinochet": 9020,
      "scrupu": 9021,
      "vintage": 9022,
      "unprecedented": 9023,
      "immense": 9024,
      "Thyssen": 9025,
      "Maastricht": 9026,
      "Gasòliba": 9027,
      "Hatzidakis": 9028,
      ".\"": 9029,
      "800": 9030,
      "AI": 9031,
      "Apr": 9032,
      "Aussi": 9033,
      "Bra": 9034,
      "Bay": 9035,
      "Bisc": 9036,
      "Che": 9037,
      "Cus": 9038,
      "Du": 9039,
      "Fra": 9040,
      "Four": 9041,
      "Face": 9042,
      "Gama": 9043,
      "High": 9044,
      "IT": 9045,
      "Men": 9046,
      "Math": 9047,
      "Over": 9048,
      "Omb": 9049,
      "Other": 9050,
      "PT": 9051,
      "Ple": 9052,
      "Sj": 9053,
      "Son": 9054,
      "Swe": 9055,
      "Surely": 9056,
      "Wise": 9057,
      "Wulf": 9058,
      "alar": 9059,
      "ache": 9060,
      "afra": 9061,
      "cl": 9062,
      "cac": 9063,
      "cter": 9064,
      "cance": 9065,
      "ctoire": 9066,
      "cinquième": 9067,
      "dres": 9068,
      "dens": 9069,
      "emissions": 9070,
      "fres": 9071,
      "fame": 9072,
      "flow": 9073,
      "fast": 9074,
      "hit": 9075,
      "hav": 9076,
      "iens": 9077,
      "lly": 9078,
      "liter": 9079,
      "nau": 9080,
      "nally": 9081,
      "page": 9082,
      "pact": 9083,
      "pèse": 9084,
      "rh": 9085,
      "rur": 9086,
      "sli": 9087,
      "stitu": 9088,
      "sine": 9089,
      "spread": 9090,
      "tlement": 9091,
      "tort": 9092,
      "tête": 9093,
      "udsman": 9094,
      "vac": 9095,
      "vable": 9096,
      "vations": 9097,
      "yes": 9098,
      "zens": 9099,
      "âgées": 9100,
      "éen": 9101,
      "édu": 9102,
      "écla": 9103,
[...]
